const unsigned char model[] = {
  0x1c, 0x00, 0x00, 0x00, 0x54, 0x46, 0x4c, 0x33, 0x14, 0x00, 0x20, 0x00,
  0x1c, 0x00, 0x18, 0x00, 0x14, 0x00, 0x10, 0x00, 0x0c, 0x00, 0x00, 0x00,
  0x08, 0x00, 0x04, 0x00, 0x14, 0x00, 0x00, 0x00, 0x1c, 0x00, 0x00, 0x00,
  0x84, 0x00, 0x00, 0x00, 0xdc, 0x00, 0x00, 0x00, 0xfc, 0x47, 0x00, 0x00,
  0x0c, 0x48, 0x00, 0x00, 0xac, 0x4d, 0x00, 0x00, 0x03, 0x00, 0x00, 0x00,
  0x01, 0x00, 0x00, 0x00, 0x04, 0x00, 0x00, 0x00, 0xb6, 0xb7, 0xff, 0xff,
  0x0c, 0x00, 0x00, 0x00, 0x1c, 0x00, 0x00, 0x00, 0x38, 0x00, 0x00, 0x00,
  0x0f, 0x00, 0x00, 0x00, 0x73, 0x65, 0x72, 0x76, 0x69, 0x6e, 0x67, 0x5f,
  0x64, 0x65, 0x66, 0x61, 0x75, 0x6c, 0x74, 0x00, 0x01, 0x00, 0x00, 0x00,
  0x04, 0x00, 0x00, 0x00, 0x98, 0xff, 0xff, 0xff, 0x0a, 0x00, 0x00, 0x00,
  0x04, 0x00, 0x00, 0x00, 0x07, 0x00, 0x00, 0x00, 0x64, 0x65, 0x6e, 0x73,
  0x65, 0x5f, 0x32, 0x00, 0x01, 0x00, 0x00, 0x00, 0x04, 0x00, 0x00, 0x00,
  0x82, 0xb9, 0xff, 0xff, 0x04, 0x00, 0x00, 0x00, 0x0b, 0x00, 0x00, 0x00,
  0x64, 0x65, 0x6e, 0x73, 0x65, 0x5f, 0x69, 0x6e, 0x70, 0x75, 0x74, 0x00,
  0x02, 0x00, 0x00, 0x00, 0x34, 0x00, 0x00, 0x00, 0x04, 0x00, 0x00, 0x00,
  0xdc, 0xff, 0xff, 0xff, 0x0d, 0x00, 0x00, 0x00, 0x04, 0x00, 0x00, 0x00,
  0x13, 0x00, 0x00, 0x00, 0x43, 0x4f, 0x4e, 0x56, 0x45, 0x52, 0x53, 0x49,
  0x4f, 0x4e, 0x5f, 0x4d, 0x45, 0x54, 0x41, 0x44, 0x41, 0x54, 0x41, 0x00,
  0x08, 0x00, 0x0c, 0x00, 0x08, 0x00, 0x04, 0x00, 0x08, 0x00, 0x00, 0x00,
  0x0c, 0x00, 0x00, 0x00, 0x04, 0x00, 0x00, 0x00, 0x13, 0x00, 0x00, 0x00,
  0x6d, 0x69, 0x6e, 0x5f, 0x72, 0x75, 0x6e, 0x74, 0x69, 0x6d, 0x65, 0x5f,
  0x76, 0x65, 0x72, 0x73, 0x69, 0x6f, 0x6e, 0x00, 0x0e, 0x00, 0x00, 0x00,
  0x1c, 0x47, 0x00, 0x00, 0x14, 0x47, 0x00, 0x00, 0x04, 0x46, 0x00, 0x00,
  0xe8, 0x45, 0x00, 0x00, 0xd8, 0x44, 0x00, 0x00, 0xc8, 0x41, 0x00, 0x00,
  0xb8, 0x01, 0x00, 0x00, 0xa8, 0x00, 0x00, 0x00, 0xa0, 0x00, 0x00, 0x00,
  0x98, 0x00, 0x00, 0x00, 0x90, 0x00, 0x00, 0x00, 0x88, 0x00, 0x00, 0x00,
  0x68, 0x00, 0x00, 0x00, 0x04, 0x00, 0x00, 0x00, 0x32, 0xba, 0xff, 0xff,
  0x04, 0x00, 0x00, 0x00, 0x54, 0x00, 0x00, 0x00, 0x0c, 0x00, 0x00, 0x00,
  0x08, 0x00, 0x0e, 0x00, 0x08, 0x00, 0x04, 0x00, 0x08, 0x00, 0x00, 0x00,
  0x10, 0x00, 0x00, 0x00, 0x24, 0x00, 0x00, 0x00, 0x00, 0x00, 0x06, 0x00,
  0x08, 0x00, 0x04, 0x00, 0x06, 0x00, 0x00, 0x00, 0x04, 0x00, 0x00, 0x00,
  0x00, 0x00, 0x00, 0x00, 0x00, 0x00, 0x0a, 0x00, 0x10, 0x00, 0x0c, 0x00,
  0x08, 0x00, 0x04, 0x00, 0x0a, 0x00, 0x00, 0x00, 0x02, 0x00, 0x00, 0x00,
  0x02, 0x00, 0x00, 0x00, 0x04, 0x00, 0x00, 0x00, 0x06, 0x00, 0x00, 0x00,
  0x32, 0x2e, 0x31, 0x32, 0x2e, 0x30, 0x00, 0x00, 0x92, 0xba, 0xff, 0xff,
  0x04, 0x00, 0x00, 0x00, 0x10, 0x00, 0x00, 0x00, 0x31, 0x2e, 0x31, 0x34,
  0x2e, 0x30, 0x00, 0x00, 0x00, 0x00, 0x00, 0x00, 0x00, 0x00, 0x00, 0x00,
  0x14, 0xb4, 0xff, 0xff, 0x18, 0xb4, 0xff, 0xff, 0x1c, 0xb4, 0xff, 0xff,
  0x20, 0xb4, 0xff, 0xff, 0xbe, 0xba, 0xff, 0xff, 0x04, 0x00, 0x00, 0x00,
  0x00, 0x01, 0x00, 0x00, 0x3b, 0xbd, 0x31, 0xbe, 0x8c, 0xb7, 0xca, 0x3e,
  0x8c, 0xe8, 0xe0, 0xbd, 0x3e, 0xbf, 0x2a, 0x3e, 0x88, 0x9a, 0xc5, 0xbe,
  0x89, 0xf8, 0xc9, 0xbd, 0x31, 0xc0, 0xab, 0x3e, 0xac, 0xa4, 0x1e, 0xbe,
  0x43, 0x61, 0x44, 0xbe, 0x18, 0xa8, 0x99, 0x3e, 0xfc, 0xd4, 0x63, 0x3d,
  0x4b, 0x61, 0x58, 0xbe, 0xaf, 0xf5, 0x16, 0xbe, 0xf8, 0x76, 0x12, 0x3e,
  0xb6, 0x34, 0x84, 0xbe, 0xbc, 0xe6, 0xa6, 0xbd, 0xcf, 0xc0, 0x92, 0xbd,
  0x8d, 0x10, 0xb1, 0xbd, 0x4d, 0xfb, 0xaa, 0x3d, 0xb4, 0x2f, 0x59, 0x3e,
  0xc3, 0x7b, 0x57, 0xbd, 0x64, 0x2c, 0xcd, 0xbd, 0x03, 0xd4, 0x9b, 0xbd,
  0x36, 0x13, 0xd2, 0x3d, 0xa4, 0x30, 0x15, 0x3e, 0x76, 0xb9, 0xa6, 0xbd,
  0x1b, 0x43, 0xf6, 0xbd, 0xff, 0x67, 0xd9, 0xbd, 0x40, 0xa6, 0x0b, 0x3e,
  0xc6, 0xdd, 0xd3, 0x3e, 0x42, 0x76, 0x1c, 0xbe, 0x6e, 0x6b, 0x29, 0xbe,
  0xbb, 0x1b, 0x8d, 0x3e, 0x62, 0x28, 0x39, 0xbe, 0xb2, 0x28, 0x3d, 0xbe,
  0x4d, 0xc3, 0x23, 0x3e, 0xf3, 0xb5, 0xa7, 0x3e, 0x9c, 0x24, 0xef, 0xbe,
  0xfe, 0x83, 0xc1, 0xbd, 0x9c, 0xa6, 0xac, 0xbd, 0x50, 0x2f, 0x98, 0xbd,
  0x8b, 0x20, 0x9a, 0xbe, 0x18, 0xaa, 0xaf, 0xbd, 0x47, 0x65, 0x11, 0x3e,
  0x7d, 0x17, 0x73, 0x3e, 0xbe, 0x17, 0x06, 0xbe, 0xc6, 0xc3, 0x0e, 0x3e,
  0xc4, 0xfa, 0xe9, 0x3d, 0xf7, 0xf0, 0x02, 0xbe, 0x48, 0xa5, 0xbc, 0xbe,
  0x8a, 0xb6, 0x98, 0xbe, 0xc9, 0x04, 0xdc, 0xbd, 0xe9, 0xb3, 0x7c, 0x3e,
  0xd7, 0xd1, 0x48, 0xbe, 0xef, 0xb7, 0x27, 0x3e, 0xde, 0x00, 0xde, 0xbd,
  0xb3, 0x6b, 0x4b, 0x3e, 0x71, 0x4d, 0xa9, 0x3e, 0xa1, 0x34, 0xcf, 0xbd,
  0xf0, 0xc3, 0x6f, 0x3e, 0x74, 0xd5, 0x98, 0x3e, 0xed, 0x68, 0x4e, 0x3c,
  0xe2, 0xef, 0xe8, 0x3e, 0xc2, 0xa5, 0x05, 0xbe, 0xca, 0xbb, 0xff, 0xff,
  0x04, 0x00, 0x00, 0x00, 0x00, 0x40, 0x00, 0x00, 0xeb, 0xa4, 0x58, 0x3e,
  0xf3, 0x02, 0x92, 0xbe, 0xa5, 0xb5, 0x2a, 0x3e, 0xeb, 0x38, 0x18, 0x3c,
  0x25, 0xca, 0xde, 0x3d, 0x6f, 0xe1, 0x9c, 0xbe, 0xc0, 0xf3, 0xff, 0x3d,
  0x30, 0x8f, 0x9c, 0xbd, 0x25, 0xdd, 0x04, 0x3d, 0x56, 0xaa, 0xc7, 0xbc,
  0x5b, 0xa6, 0xb9, 0x3d, 0x6f, 0x7d, 0x60, 0x3c, 0xc9, 0xa4, 0x0a, 0xbb,
  0x6e, 0x3a, 0x17, 0xbe, 0xf4, 0xee, 0xd3, 0xbd, 0x33, 0x13, 0xaf, 0x3d,
  0xc0, 0x82, 0x56, 0x3e, 0x7e, 0x54, 0x7f, 0x3e, 0xaf, 0x79, 0x9c, 0x3e,
  0x01, 0xed, 0x94, 0xbd, 0x5b, 0x1b, 0x8b, 0xbc, 0x0b, 0xe3, 0xc7, 0xbe,
  0x6e, 0xc4, 0x23, 0x3e, 0x66, 0x83, 0x7a, 0xbc, 0xb3, 0x5a, 0x2a, 0x3c,
  0x6a, 0x73, 0x81, 0xbe, 0x97, 0x74, 0xb4, 0xbc, 0xbe, 0x07, 0xc3, 0xbd,
  0xcf, 0x94, 0x80, 0x3e, 0x8d, 0x43, 0x12, 0x3e, 0x48, 0x91, 0x91, 0x3e,
  0x94, 0x72, 0xf0, 0x3c, 0x2c, 0xd3, 0x9a, 0xbc, 0xd3, 0xce, 0x44, 0x3d,
  0x23, 0x2c, 0xdb, 0x3d, 0x2c, 0x51, 0xd6, 0xbd, 0x9a, 0x60, 0x1e, 0x3e,
  0x62, 0xcb, 0xd0, 0x3d, 0xea, 0xaf, 0x8f, 0xbe, 0xae, 0x3a, 0x18, 0x3e,
  0xb4, 0x66, 0x76, 0xbd, 0x14, 0x88, 0x49, 0x3e, 0xf6, 0x24, 0x27, 0x3e,
  0xc8, 0xf3, 0x30, 0xbe, 0x26, 0x04, 0x03, 0xbe, 0x36, 0x15, 0x6e, 0x3e,
  0xfb, 0x43, 0xa4, 0xbd, 0x62, 0x35, 0x19, 0x3d, 0x7c, 0xf8, 0x81, 0x3d,
  0x50, 0xd9, 0x43, 0x3e, 0xea, 0x03, 0x8d, 0x3e, 0x2f, 0x36, 0xe9, 0x3d,
  0x37, 0x01, 0x82, 0xbe, 0x4c, 0xbd, 0xff, 0x3d, 0x2d, 0x80, 0xa6, 0xbd,
  0xff, 0x5f, 0x2f, 0xbe, 0x54, 0x13, 0x52, 0xbe, 0x4a, 0x5c, 0xd5, 0x39,
  0xa2, 0x62, 0xde, 0xbe, 0x83, 0x8b, 0x63, 0x3d, 0xb6, 0x0d, 0x8d, 0x3d,
  0x4e, 0x55, 0xdb, 0xbc, 0x7f, 0x38, 0x49, 0x3e, 0xbd, 0x10, 0x01, 0xbf,
  0xe4, 0xd6, 0x99, 0xbd, 0x18, 0xe5, 0xa6, 0xbc, 0xa7, 0xca, 0xd2, 0x3c,
  0xee, 0xc1, 0xd6, 0xbb, 0xb7, 0x6e, 0x34, 0xbe, 0x97, 0xf5, 0xad, 0x3e,
  0x3b, 0xdb, 0x1e, 0xbf, 0x94, 0x67, 0x87, 0xbe, 0x13, 0xa5, 0x2a, 0x3e,
  0x5d, 0x02, 0x75, 0x3e, 0x48, 0x04, 0x38, 0xbf, 0x77, 0x86, 0x1f, 0xbf,
  0x1d, 0x09, 0x04, 0xbe, 0x77, 0xb4, 0x7c, 0xbd, 0xa4, 0x43, 0x41, 0x3e,
  0x5a, 0x54, 0xba, 0xbe, 0x0c, 0x47, 0x9b, 0xbc, 0xe3, 0xd4, 0x2b, 0xbe,
  0x6a, 0x5c, 0xb4, 0xbe, 0x1f, 0xdb, 0xac, 0xbe, 0x22, 0x22, 0xa7, 0xbd,
  0x8f, 0xdf, 0xa1, 0x3e, 0xba, 0xb3, 0x98, 0xbe, 0xb3, 0x52, 0x80, 0x3e,
  0x93, 0x3f, 0x0e, 0xbf, 0x4f, 0xe3, 0xe3, 0xbd, 0x62, 0x75, 0xa0, 0xbe,
  0x65, 0x77, 0xd9, 0xbd, 0xbc, 0x3f, 0x1c, 0xbf, 0x52, 0x98, 0x0c, 0xbe,
  0x6a, 0xc5, 0xe8, 0xbd, 0x58, 0x3e, 0x18, 0xbf, 0x87, 0x32, 0xec, 0xbc,
  0x4e, 0xe2, 0xa4, 0x3d, 0x36, 0x34, 0x19, 0xbe, 0xf1, 0x06, 0x46, 0xbf,
  0x19, 0x15, 0x10, 0xbc, 0xb4, 0x56, 0x31, 0xbf, 0x49, 0x2a, 0xa9, 0xbe,
  0x62, 0x81, 0xfe, 0xbe, 0x48, 0x67, 0x8f, 0xbe, 0xe1, 0x8c, 0x95, 0x3d,
  0x52, 0x4c, 0xbe, 0xbe, 0x91, 0xa9, 0x24, 0x3d, 0xdc, 0xde, 0x51, 0x3d,
  0x75, 0xcd, 0xed, 0x3d, 0xa4, 0xf0, 0x87, 0xbe, 0x20, 0x0a, 0x87, 0x3a,
  0xaf, 0xab, 0xc6, 0xbd, 0xba, 0xc3, 0x41, 0xbd, 0xa0, 0xff, 0x17, 0xbe,
  0x1f, 0x5d, 0x60, 0xbf, 0x8b, 0x85, 0x5c, 0x3c, 0xa5, 0xc1, 0xe4, 0xbe,
  0x0b, 0x36, 0x9a, 0x3e, 0x8a, 0x17, 0x42, 0xbf, 0x21, 0xd4, 0xbb, 0x3d,
  0x13, 0xf9, 0x03, 0xbe, 0xfd, 0x20, 0x04, 0x3f, 0xf2, 0x2d, 0x60, 0x3c,
  0x72, 0xd1, 0xc6, 0xbe, 0xe3, 0x9e, 0x84, 0x3e, 0xeb, 0xb4, 0xa4, 0x3d,
  0xba, 0xa9, 0x50, 0x3e, 0xaa, 0x68, 0xc9, 0xbd, 0x61, 0x90, 0xbe, 0xbd,
  0xb0, 0xd3, 0x1e, 0x3e, 0xf6, 0x1e, 0xb5, 0xbe, 0x18, 0x85, 0x8d, 0x3d,
  0x11, 0xc7, 0x0e, 0xbe, 0xd8, 0x0e, 0x14, 0x3d, 0x26, 0xe2, 0x2f, 0xbe,
  0xad, 0xf3, 0x3e, 0xbd, 0x92, 0xfc, 0xeb, 0x3d, 0x3e, 0xc1, 0x6f, 0xbd,
  0xc1, 0x70, 0x7c, 0x3e, 0xc1, 0xfb, 0x23, 0xbe, 0x34, 0x11, 0xfa, 0x3d,
  0x44, 0x9d, 0x06, 0x3d, 0xcc, 0x25, 0x31, 0x3e, 0x5d, 0x9d, 0x17, 0x3e,
  0xf1, 0x62, 0x41, 0x3e, 0xb4, 0x84, 0xfb, 0x3d, 0x1a, 0x66, 0x20, 0x3e,
  0xae, 0x45, 0xb8, 0x3d, 0xcc, 0x17, 0x65, 0xbe, 0x30, 0xd4, 0xf5, 0x3d,
  0xbe, 0x6b, 0x60, 0x3e, 0x92, 0xa6, 0xef, 0x3d, 0xab, 0xa9, 0x4e, 0xbe,
  0xa9, 0xd7, 0x8f, 0x3d, 0xb0, 0x3f, 0x21, 0xbe, 0x55, 0xe6, 0x93, 0x3e,
  0x07, 0xe4, 0x27, 0xbd, 0x74, 0xfc, 0xba, 0x3d, 0xbe, 0x75, 0xa1, 0xbd,
  0x59, 0xa6, 0xc2, 0x3d, 0x5b, 0x75, 0x1e, 0x3e, 0x44, 0xde, 0x02, 0x3d,
  0x88, 0x91, 0x74, 0x3e, 0xd5, 0x1c, 0x04, 0x3f, 0x9e, 0x7f, 0x1a, 0x3e,
  0xe0, 0xa3, 0x13, 0xbe, 0x73, 0x8b, 0x58, 0x3e, 0xa4, 0x3b, 0x8f, 0xbe,
  0x25, 0xbf, 0x20, 0x3e, 0xa4, 0x6b, 0x85, 0x3e, 0xfd, 0xcf, 0x43, 0x3d,
  0x6a, 0x56, 0x11, 0xbe, 0x6d, 0xf1, 0x85, 0x3e, 0x55, 0x7e, 0x35, 0xbe,
  0x56, 0xb4, 0x82, 0x3e, 0xe5, 0xe3, 0xe3, 0xbd, 0x20, 0x94, 0x68, 0xbb,
  0xf5, 0x25, 0x46, 0x3e, 0x72, 0x16, 0x5e, 0xbd, 0x5f, 0xcb, 0x75, 0xbd,
  0x79, 0x2f, 0x1e, 0x3d, 0x0c, 0x59, 0x87, 0x3e, 0xf0, 0x16, 0x07, 0xbe,
  0xe0, 0x06, 0xaa, 0xbd, 0x48, 0xd5, 0xb2, 0x3c, 0xe5, 0xf6, 0xd3, 0xbc,
  0xd8, 0x74, 0x35, 0x3d, 0x82, 0xd0, 0x1e, 0x3e, 0x9b, 0x26, 0x01, 0xbd,
  0xcf, 0x71, 0x6a, 0x3c, 0x67, 0xef, 0x3b, 0xbe, 0x15, 0xdf, 0xc2, 0x3d,
  0xa5, 0x51, 0x62, 0xbe, 0xd6, 0x0b, 0x1c, 0xbe, 0x26, 0x5e, 0x3e, 0xbd,
  0x8b, 0x25, 0x2b, 0xbe, 0x54, 0xd7, 0x2e, 0x3d, 0x2d, 0x74, 0x1f, 0x3e,
  0x13, 0xcf, 0x63, 0x3e, 0x14, 0xec, 0x53, 0xbe, 0xd8, 0xdb, 0x73, 0x3d,
  0x62, 0x9c, 0x5d, 0xbe, 0x15, 0x43, 0x8f, 0xbe, 0x03, 0xb9, 0x64, 0xbc,
  0x8f, 0x25, 0x23, 0x3e, 0x28, 0x56, 0x2c, 0x3d, 0x00, 0x47, 0x2d, 0xbf,
  0xb6, 0x8a, 0x51, 0xbe, 0xe3, 0x97, 0xed, 0xbe, 0x90, 0x30, 0x76, 0xbe,
  0x36, 0x59, 0x00, 0xbf, 0xa7, 0xdf, 0x8b, 0x3d, 0x67, 0x15, 0xfa, 0x3d,
  0x2e, 0x11, 0x11, 0xbe, 0xe7, 0x63, 0xd7, 0xbe, 0x0b, 0x05, 0x59, 0x3c,
  0xf1, 0x62, 0x08, 0x3e, 0xd0, 0xe3, 0xe6, 0xbe, 0xa9, 0xc9, 0x8c, 0x3c,
  0x74, 0x3c, 0xb2, 0xbe, 0x42, 0xcf, 0xaa, 0xbd, 0xc2, 0xe9, 0x1a, 0x3c,
  0x92, 0x2d, 0x39, 0xbe, 0xc8, 0x15, 0x02, 0xbe, 0x51, 0x2b, 0xa4, 0x3e,
  0x49, 0x57, 0x79, 0x3e, 0xa1, 0xb2, 0x16, 0xbe, 0x3b, 0x51, 0x96, 0xbb,
  0xfa, 0x85, 0x7d, 0xbe, 0x4a, 0xd4, 0x30, 0x3d, 0x48, 0x13, 0x8a, 0xbe,
  0xa7, 0xcc, 0x08, 0xbc, 0xae, 0xaa, 0xf5, 0xbd, 0x75, 0x5a, 0x79, 0xbe,
  0xce, 0xb3, 0xee, 0xbd, 0xf1, 0x2a, 0x6c, 0x3e, 0x57, 0x6e, 0x88, 0x3d,
  0x9c, 0x62, 0x2f, 0xbe, 0x61, 0xb6, 0x35, 0x3e, 0xd5, 0xc4, 0xab, 0xbe,
  0x67, 0x79, 0x9e, 0x3e, 0xe4, 0x0b, 0xbf, 0x3d, 0x71, 0xc5, 0xb6, 0xbe,
  0xfe, 0xaf, 0x60, 0xbe, 0x4a, 0x54, 0x8b, 0x3e, 0x8d, 0x44, 0xc4, 0x3d,
  0x4f, 0x11, 0xce, 0xbe, 0x47, 0x5a, 0x22, 0xbe, 0x32, 0xf3, 0x5c, 0x3e,
  0x4a, 0x8e, 0xb5, 0xbd, 0x66, 0x13, 0x78, 0x3e, 0x1b, 0x36, 0x1f, 0xbe,
  0x9d, 0xdf, 0xd9, 0xbe, 0x5d, 0xf6, 0x2b, 0x3e, 0xa4, 0x04, 0x8e, 0x3d,
  0x66, 0xbf, 0xaf, 0x3d, 0x42, 0xa9, 0x32, 0xbe, 0x81, 0xf9, 0xd5, 0xbe,
  0xba, 0x61, 0x52, 0xbe, 0x1f, 0x05, 0x4f, 0x3e, 0xfc, 0x54, 0x58, 0xbe,
  0xff, 0xca, 0xe8, 0xbd, 0x5d, 0xf8, 0xfe, 0xbe, 0x6a, 0xb5, 0x93, 0x3e,
  0x56, 0x6e, 0x05, 0x3d, 0x31, 0xa7, 0x84, 0x3d, 0x7e, 0x80, 0x41, 0x3d,
  0x82, 0x29, 0x98, 0xbc, 0xd5, 0xf9, 0xdb, 0x3d, 0x99, 0x36, 0xaa, 0xbe,
  0xc4, 0xfb, 0x4e, 0x3d, 0x5d, 0x6c, 0xd3, 0xbd, 0xf0, 0xb5, 0x68, 0x3e,
  0xe7, 0x91, 0x72, 0x3d, 0xbd, 0x9d, 0x02, 0x3e, 0xeb, 0xfd, 0x47, 0x3e,
  0xbe, 0x42, 0xcf, 0xbe, 0x73, 0xa0, 0x84, 0xbd, 0xf3, 0x9a, 0x12, 0x3e,
  0x09, 0xec, 0x2e, 0xbe, 0xdf, 0x13, 0xaa, 0xbd, 0x26, 0x45, 0x34, 0x3e,
  0xcb, 0x62, 0x44, 0xbe, 0x4c, 0xfd, 0x38, 0xbd, 0xf9, 0x26, 0x07, 0x3e,
  0x73, 0x9c, 0x93, 0xbd, 0x95, 0x27, 0x4b, 0xbe, 0x95, 0x03, 0xbf, 0xbe,
  0x15, 0x78, 0x7b, 0xbd, 0x6d, 0x03, 0x23, 0xbc, 0x99, 0x40, 0x78, 0xbd,
  0x17, 0x10, 0xc5, 0x3e, 0xa5, 0x91, 0xfd, 0xbd, 0xfa, 0xce, 0xeb, 0xbd,
  0x67, 0x1e, 0xaa, 0xbd, 0x8a, 0x17, 0xb5, 0xbd, 0x9f, 0xb4, 0x29, 0x3e,
  0xbc, 0x5f, 0xb8, 0xbc, 0x34, 0x50, 0xca, 0xbd, 0x38, 0xd9, 0x3c, 0x3d,
  0x7c, 0x90, 0x9a, 0xbd, 0x7e, 0xe3, 0xf6, 0x3c, 0xd7, 0x28, 0xfe, 0xbd,
  0x6a, 0x9d, 0x0a, 0xbe, 0xd8, 0x7b, 0xdf, 0x3c, 0xa8, 0x49, 0x45, 0x3e,
  0xcf, 0x69, 0x9b, 0x3d, 0x6b, 0xe5, 0x95, 0xbe, 0x2f, 0x6c, 0xe1, 0xbd,
  0x9a, 0xbb, 0x5f, 0x3d, 0x5e, 0xb5, 0xeb, 0x3d, 0x70, 0xd6, 0xbc, 0xbe,
  0xd1, 0x7c, 0x20, 0xbe, 0xfa, 0xb8, 0xa1, 0xbe, 0xc2, 0xb4, 0xe7, 0xbd,
  0xc1, 0x81, 0x6a, 0x3e, 0x25, 0x80, 0x21, 0xbe, 0xd2, 0x33, 0xaa, 0xbe,
  0xfc, 0xa8, 0xd9, 0xbe, 0x36, 0xac, 0xc5, 0xbd, 0x33, 0x3d, 0x1c, 0x3e,
  0x3b, 0x32, 0x7a, 0x3e, 0x12, 0x2e, 0xe4, 0xbd, 0x46, 0x16, 0x7b, 0x3e,
  0x8b, 0x0e, 0x01, 0xbe, 0xbe, 0x15, 0x02, 0x3e, 0x6d, 0xe9, 0x16, 0x3e,
  0xfe, 0xcd, 0x5b, 0x3d, 0xa3, 0x2c, 0xb1, 0x3e, 0x58, 0x31, 0x66, 0x3e,
  0xc7, 0x0d, 0xd0, 0x3e, 0xef, 0xc7, 0x2f, 0xbe, 0x59, 0x6f, 0x8d, 0xbe,
  0x35, 0x58, 0x67, 0x3c, 0xbd, 0xb9, 0x28, 0x3e, 0xa4, 0xca, 0xc9, 0x3e,
  0xdc, 0xa5, 0xdf, 0x3d, 0x52, 0x6f, 0x31, 0x3a, 0x78, 0x52, 0xcf, 0xbc,
  0xcf, 0xa5, 0x5c, 0xbe, 0x17, 0xe2, 0x3a, 0x3e, 0xf5, 0x6b, 0x7e, 0x3e,
  0x96, 0xde, 0x1a, 0xbe, 0xd8, 0x4f, 0xb7, 0x3e, 0x6b, 0x1b, 0x5e, 0xbe,
  0xc8, 0x6a, 0xe5, 0x3c, 0x50, 0xa3, 0x72, 0xbe, 0xfe, 0xdf, 0x22, 0x3d,
  0x4e, 0x71, 0x08, 0xbc, 0xee, 0x74, 0x4d, 0x3e, 0xb7, 0x65, 0xcd, 0x3d,
  0x40, 0xd9, 0x6e, 0x3e, 0x41, 0xd1, 0x3b, 0x3e, 0x0f, 0xc3, 0x86, 0xbe,
  0x13, 0xf1, 0x75, 0x3c, 0xbe, 0xbd, 0x2d, 0x3e, 0x0b, 0x0c, 0x1c, 0x3e,
  0x20, 0x0f, 0xae, 0xbe, 0x40, 0xec, 0x66, 0xbd, 0xea, 0xd9, 0x04, 0xbf,
  0x2a, 0x42, 0x3a, 0x3e, 0x7f, 0xe0, 0xce, 0x3d, 0x27, 0xab, 0x92, 0x3e,
  0x83, 0x4d, 0xb3, 0xbd, 0xbc, 0x35, 0x86, 0x3e, 0xed, 0xbb, 0xf5, 0xbd,
  0xc2, 0x29, 0x3c, 0x3d, 0x19, 0x66, 0xb0, 0x3d, 0x11, 0xf7, 0x95, 0x3e,
  0x99, 0xa3, 0x1f, 0x3e, 0xa6, 0xcf, 0x4e, 0x3e, 0xab, 0x3e, 0x34, 0x3e,
  0xe7, 0x5c, 0x23, 0x3f, 0xd0, 0xeb, 0x92, 0x3e, 0x0d, 0xeb, 0x59, 0xbd,
  0xb3, 0x67, 0xdc, 0x3d, 0xe3, 0x15, 0xb4, 0x3d, 0x5e, 0x68, 0xee, 0xbd,
  0xd2, 0xf6, 0x85, 0xbd, 0xd1, 0xac, 0x17, 0x3e, 0xf2, 0x20, 0x23, 0x3e,
  0xd4, 0xa3, 0x17, 0x3e, 0xbc, 0x02, 0x4e, 0xbe, 0xf6, 0x55, 0x00, 0x3e,
  0xe6, 0xf9, 0x57, 0x3e, 0x24, 0x7d, 0x21, 0x3e, 0xfa, 0xe3, 0x78, 0x3c,
  0x66, 0xa6, 0xfe, 0xbe, 0x4d, 0x46, 0x44, 0xbe, 0x6a, 0x02, 0x06, 0xbe,
  0x1b, 0xa3, 0x8e, 0x3e, 0x5d, 0x0f, 0x2b, 0x3e, 0x77, 0x55, 0x06, 0x3d,
  0xf6, 0x68, 0x48, 0xbf, 0x00, 0x3f, 0x42, 0xbf, 0x02, 0xeb, 0x7c, 0x3d,
  0xb2, 0xb6, 0xd1, 0xbd, 0x38, 0x2b, 0x8e, 0x3e, 0x6a, 0x77, 0xac, 0xbe,
  0x68, 0xcc, 0x13, 0xbe, 0xb9, 0xdf, 0x03, 0xbf, 0xe8, 0xc3, 0xef, 0xbd,
  0x6e, 0xc3, 0xc1, 0xbe, 0xc2, 0xac, 0x23, 0xbe, 0xf5, 0x2f, 0x26, 0x3e,
  0xa6, 0x3c, 0x9d, 0xbe, 0x8b, 0x73, 0x93, 0x3d, 0x73, 0xe6, 0x18, 0x3e,
  0xed, 0x36, 0xfd, 0x3d, 0xa6, 0x22, 0x03, 0xbf, 0x25, 0xa8, 0xd7, 0x3d,
  0x6c, 0x9d, 0x0d, 0xbf, 0x05, 0x09, 0xa8, 0x3e, 0x2c, 0xfa, 0x87, 0xbe,
  0x97, 0xb2, 0x03, 0xbf, 0x42, 0xf0, 0xc2, 0x3d, 0x83, 0xa9, 0x5e, 0x3e,
  0x02, 0x14, 0x77, 0x3e, 0x31, 0xd7, 0x1c, 0xbf, 0xd4, 0x70, 0x10, 0x3e,
  0x31, 0xe9, 0x0a, 0xbf, 0x51, 0xf6, 0xc3, 0x3e, 0x6c, 0xe8, 0x4f, 0xbe,
  0x1f, 0xfe, 0xbc, 0x3e, 0xf8, 0x1a, 0xe0, 0x3d, 0x2d, 0xe3, 0x18, 0xbf,
  0xa7, 0xae, 0x52, 0x3e, 0xd7, 0xb3, 0x89, 0x3e, 0x72, 0xe2, 0x26, 0x3e,
  0xd5, 0xab, 0x80, 0x3e, 0x38, 0x3e, 0x85, 0x3e, 0x1d, 0xdc, 0xaa, 0xbe,
  0xae, 0x88, 0xa7, 0x3d, 0x0d, 0x1a, 0x04, 0x3e, 0xfc, 0xdc, 0x20, 0xbf,
  0x74, 0xdb, 0xa2, 0x3e, 0x5c, 0x58, 0xe1, 0x3e, 0x3c, 0xc1, 0x7f, 0x3e,
  0xec, 0xc4, 0x0f, 0xbf, 0xbe, 0x76, 0x48, 0x3d, 0x22, 0x28, 0x0d, 0x3e,
  0x0b, 0x64, 0xa7, 0x3e, 0xaa, 0x62, 0xb8, 0x3d, 0x58, 0x9f, 0xa6, 0xbd,
  0xb1, 0xc0, 0x93, 0x3e, 0xec, 0x50, 0x9c, 0x3d, 0x64, 0xed, 0xa8, 0x3e,
  0x0f, 0x26, 0xfb, 0x3d, 0x6f, 0x5a, 0x96, 0xbe, 0xfd, 0x4d, 0x55, 0xbe,
  0x9d, 0x3c, 0x80, 0x3d, 0x4f, 0x49, 0x1a, 0x3f, 0xeb, 0xa1, 0xd6, 0xbd,
  0x8b, 0xd1, 0x3b, 0xbe, 0xa2, 0x37, 0x89, 0xbe, 0xec, 0xfb, 0x4d, 0xbc,
  0x1c, 0x10, 0x9a, 0x3e, 0x4a, 0xa3, 0x32, 0x3d, 0x75, 0xed, 0x7a, 0x3e,
  0xb8, 0x73, 0xe7, 0xbd, 0x02, 0x16, 0x1d, 0xbe, 0xab, 0x71, 0x10, 0xbe,
  0x71, 0x30, 0xf5, 0xbd, 0xd5, 0x7f, 0xc4, 0x3e, 0x1a, 0xc8, 0x62, 0x3e,
  0xd2, 0x17, 0x8d, 0x3e, 0x67, 0x7e, 0x50, 0xbe, 0x07, 0x84, 0x51, 0x3e,
  0x50, 0x73, 0x9b, 0xbe, 0x0d, 0xd1, 0x51, 0xbb, 0x9e, 0x18, 0x04, 0xbe,
  0xcf, 0xad, 0x7e, 0xbe, 0xf6, 0x56, 0x4c, 0xbe, 0x3e, 0xde, 0x0d, 0x3e,
  0x07, 0xfa, 0x88, 0xbc, 0x9a, 0xdf, 0x79, 0x3c, 0xfd, 0x9d, 0x0e, 0xbc,
  0x37, 0xe8, 0xc6, 0xbd, 0x90, 0xad, 0x35, 0xbe, 0x87, 0x93, 0x9d, 0xbe,
  0xff, 0x3e, 0xf2, 0xbd, 0x91, 0x67, 0xd7, 0x3d, 0xa4, 0x54, 0xf6, 0x3d,
  0x59, 0xb2, 0xe0, 0x3e, 0x4e, 0xbe, 0xa6, 0xbd, 0xc1, 0xe8, 0xa5, 0x3d,
  0x90, 0x47, 0x80, 0x3e, 0x1b, 0x82, 0x8c, 0xbe, 0xc1, 0xa8, 0x37, 0xbd,
  0x36, 0xa7, 0x2c, 0x3e, 0x28, 0x66, 0x8b, 0xbb, 0xe4, 0xca, 0x9c, 0x3c,
  0x6b, 0x96, 0x23, 0xbd, 0x7b, 0xb4, 0x82, 0xbe, 0xae, 0x01, 0xd5, 0x3d,
  0x2f, 0x01, 0x5f, 0x3e, 0x06, 0x10, 0xbd, 0xbd, 0x09, 0xff, 0x22, 0xbc,
  0x68, 0xc3, 0x69, 0xbd, 0x45, 0xcf, 0x42, 0xbe, 0x9a, 0x49, 0x96, 0xbd,
  0xc2, 0x7e, 0x8b, 0x3e, 0x2c, 0x27, 0x08, 0xbd, 0x46, 0x1d, 0x0f, 0xbe,
  0xe2, 0xbc, 0x30, 0x3e, 0x70, 0x66, 0xf8, 0xbe, 0x06, 0x1b, 0x27, 0x3c,
  0xa9, 0x55, 0xd4, 0xbc, 0x4c, 0x27, 0x51, 0xbe, 0xba, 0x9e, 0x9a, 0xbe,
  0xff, 0x52, 0x1b, 0xbf, 0xf0, 0x4c, 0x9c, 0x3d, 0xfb, 0xd7, 0xbe, 0xbd,
  0xe2, 0x27, 0x91, 0xbe, 0x4a, 0xd2, 0x2a, 0xbe, 0x23, 0xcd, 0x81, 0x3e,
  0xcb, 0xba, 0x54, 0xbd, 0xb9, 0xfa, 0x79, 0xbe, 0xe3, 0x25, 0xe0, 0xbd,
  0x00, 0x5f, 0x50, 0x3e, 0x17, 0xd2, 0xa1, 0x3e, 0x7d, 0x17, 0x2d, 0x3e,
  0xc1, 0x34, 0x3c, 0xbd, 0x8f, 0x1f, 0xd0, 0xbd, 0xe9, 0xcb, 0x5c, 0x3d,
  0xeb, 0x13, 0xcf, 0xbe, 0x9e, 0x39, 0xef, 0xbd, 0xad, 0xac, 0x65, 0xbd,
  0x44, 0x4b, 0x62, 0x3d, 0xf5, 0xc5, 0x81, 0x3e, 0x85, 0x6a, 0xbc, 0xbd,
  0xdc, 0x94, 0x5a, 0x3d, 0x06, 0x01, 0x4c, 0xbd, 0x89, 0xd0, 0xbf, 0x3d,
  0xe7, 0x0c, 0x90, 0xbd, 0xfa, 0x9d, 0x89, 0x3d, 0x25, 0x0f, 0x01, 0xbf,
  0x0d, 0x7f, 0x55, 0x3e, 0x97, 0xa3, 0x8a, 0xbe, 0x2b, 0x49, 0x15, 0xbe,
  0x2e, 0x18, 0xaa, 0xbd, 0x77, 0x79, 0x4b, 0xbd, 0x35, 0x2e, 0xb7, 0xbb,
  0xe0, 0x4a, 0x94, 0xbe, 0x12, 0xb7, 0x4a, 0x3d, 0xe4, 0x67, 0x07, 0xbe,
  0x8a, 0x99, 0x08, 0xbe, 0xad, 0xec, 0xcb, 0x3e, 0x92, 0xd5, 0xf6, 0x3d,
  0xb9, 0x36, 0x81, 0xbe, 0xde, 0x3f, 0x86, 0xbe, 0x05, 0x7e, 0x77, 0xbe,
  0xa9, 0x5a, 0x7d, 0x3e, 0x4e, 0x3f, 0x8f, 0xbd, 0x61, 0xf3, 0x25, 0x3e,
  0xaf, 0x04, 0xa4, 0xbe, 0x90, 0x83, 0x7a, 0xb8, 0x93, 0x53, 0x5b, 0xbe,
  0xfb, 0x0f, 0xdf, 0x3d, 0xfb, 0x33, 0x45, 0x3e, 0x37, 0x84, 0xee, 0x3d,
  0x18, 0x63, 0xab, 0xbd, 0xca, 0x4c, 0xe1, 0xbd, 0x12, 0x98, 0x42, 0x3d,
  0x03, 0x1d, 0x84, 0x3c, 0xc3, 0x32, 0xa4, 0xbd, 0x7c, 0xc6, 0x82, 0xbe,
  0xb2, 0xe8, 0x3d, 0xbe, 0xec, 0xf4, 0xfe, 0x3b, 0x8a, 0x2d, 0xdf, 0xbe,
  0xea, 0x2a, 0x15, 0x3d, 0xc1, 0xac, 0x9e, 0x3d, 0xc7, 0x00, 0x54, 0x3e,
  0xc8, 0xb2, 0x26, 0xbe, 0xbc, 0x3d, 0x8a, 0xbe, 0xa8, 0x0d, 0x95, 0xbd,
  0x3f, 0xb8, 0xe4, 0x3b, 0x17, 0x03, 0x62, 0x3e, 0x3f, 0x13, 0x64, 0xbd,
  0xf9, 0x78, 0xa7, 0x3d, 0xb5, 0x7a, 0xe3, 0xbd, 0x6b, 0x95, 0x67, 0x3e,
  0xa6, 0x85, 0x0f, 0x3e, 0xab, 0x80, 0xa9, 0x3d, 0xd4, 0x23, 0xb5, 0x3d,
  0x78, 0x07, 0xd4, 0xbe, 0xaa, 0xf0, 0x86, 0xbe, 0x84, 0x5f, 0x65, 0xba,
  0x30, 0x67, 0x96, 0x3e, 0x3a, 0x16, 0xd0, 0xbe, 0xb6, 0xac, 0xf0, 0xbe,
  0x51, 0x7c, 0x6e, 0xbe, 0x68, 0x46, 0x49, 0x3d, 0xb4, 0x1a, 0xb9, 0x3d,
  0x04, 0x0e, 0x27, 0xbe, 0x59, 0x69, 0x03, 0x3d, 0x70, 0xc0, 0xdb, 0xbd,
  0xf5, 0x92, 0x2f, 0x3d, 0xe5, 0xdf, 0x91, 0x3e, 0xb4, 0x5b, 0x2b, 0x3d,
  0xf5, 0xd6, 0x85, 0x3e, 0x71, 0x34, 0xc7, 0xbe, 0xb3, 0x90, 0x17, 0x3e,
  0x45, 0x7e, 0xfc, 0xbe, 0x2f, 0xce, 0x3d, 0x3c, 0xc6, 0x4d, 0x94, 0x3d,
  0x9f, 0x84, 0xcd, 0xbe, 0xa0, 0x8a, 0x83, 0xbc, 0xe0, 0x20, 0x61, 0x3e,
  0x27, 0x7b, 0x3d, 0x3e, 0x31, 0xf8, 0x1d, 0xbe, 0xf3, 0x77, 0x00, 0x3d,
  0x3e, 0xad, 0xd1, 0xbe, 0xfb, 0xd3, 0xa3, 0x3e, 0xc6, 0xc5, 0x15, 0xbe,
  0xb4, 0x03, 0xd7, 0x3d, 0x28, 0x24, 0x17, 0x3e, 0xe5, 0xf7, 0xfc, 0xbd,
  0xe8, 0x69, 0xdd, 0xbd, 0x39, 0x68, 0x6e, 0x3e, 0x9a, 0x23, 0x22, 0x3e,
  0xda, 0x48, 0xa1, 0x3d, 0xcf, 0x25, 0xa5, 0x3d, 0xcc, 0x33, 0x85, 0xbe,
  0x42, 0xf5, 0x19, 0x3d, 0x87, 0x97, 0xa4, 0xbd, 0x00, 0x7b, 0x96, 0xbe,
  0xdf, 0x75, 0xcb, 0x3d, 0x41, 0xb5, 0xbc, 0x3e, 0x26, 0xdb, 0x93, 0x3e,
  0xd3, 0x62, 0xab, 0xbd, 0x3e, 0x60, 0x53, 0xbe, 0x48, 0xd8, 0xbc, 0x3d,
  0x75, 0xb7, 0x8e, 0x3e, 0x2c, 0x13, 0xe7, 0x3c, 0x82, 0xdf, 0x80, 0xbe,
  0x69, 0x15, 0x0e, 0xbe, 0x2b, 0xe5, 0x8a, 0x3d, 0xc7, 0x83, 0xe0, 0x3d,
  0x60, 0x40, 0x69, 0xbe, 0x83, 0x67, 0x3b, 0x3e, 0x60, 0x05, 0x87, 0xbe,
  0x90, 0x64, 0x19, 0x3e, 0xc2, 0x6a, 0x45, 0xbb, 0x20, 0xfc, 0x7b, 0x3c,
  0x8b, 0xea, 0x8a, 0x3e, 0x1f, 0xb4, 0x04, 0xbe, 0x9d, 0xfd, 0xb1, 0xbe,
  0x71, 0x59, 0x7c, 0x3d, 0x35, 0xeb, 0xc7, 0xbe, 0xe1, 0x08, 0xe8, 0xbe,
  0x52, 0xdd, 0x59, 0x3d, 0x8a, 0x2f, 0x18, 0x3c, 0x1e, 0xfe, 0x7e, 0xbe,
  0xf6, 0x93, 0x5c, 0xbe, 0x63, 0x27, 0x61, 0xbd, 0x4a, 0xb7, 0x81, 0xbe,
  0xf8, 0x91, 0xca, 0xbe, 0xde, 0x47, 0xa4, 0x3d, 0xc5, 0x9d, 0xb0, 0xbd,
  0x57, 0xeb, 0x98, 0xbc, 0x08, 0x7b, 0x1b, 0xbe, 0xd8, 0xab, 0x7e, 0xbe,
  0xcf, 0x5b, 0x62, 0x3e, 0x33, 0xd7, 0xe3, 0x3c, 0xb3, 0x8e, 0x91, 0xbe,
  0xb9, 0x0f, 0x11, 0xbe, 0x3f, 0x3b, 0x39, 0xbe, 0xfc, 0x6f, 0x81, 0x3e,
  0x29, 0x5f, 0xe3, 0xbc, 0xea, 0x8b, 0xf5, 0xbd, 0xbb, 0x2b, 0xb5, 0x3d,
  0xfc, 0x73, 0x1f, 0x3e, 0x50, 0x09, 0x88, 0x3e, 0x70, 0x05, 0xe4, 0xbd,
  0x97, 0xf9, 0xf7, 0xbd, 0x63, 0xab, 0x18, 0xbd, 0x90, 0xfe, 0x8d, 0xbe,
  0x7e, 0x90, 0xc4, 0xbe, 0x3a, 0x94, 0x11, 0x3e, 0x71, 0xbc, 0x6e, 0xbd,
  0x89, 0x8e, 0xdf, 0xbd, 0x7b, 0xca, 0xad, 0xbd, 0x29, 0xb6, 0xb7, 0x3c,
  0xc0, 0x6a, 0x4f, 0x3d, 0xde, 0x58, 0xda, 0x3b, 0xda, 0xff, 0x48, 0x3d,
  0x79, 0xa7, 0x26, 0xbe, 0x92, 0xcd, 0x21, 0x3e, 0x1b, 0xb6, 0xdc, 0xbd,
  0x5c, 0x39, 0x90, 0xbe, 0x2d, 0x6e, 0x59, 0xbc, 0xdd, 0xc8, 0x85, 0x3e,
  0xae, 0x72, 0xab, 0xbe, 0xa8, 0xff, 0x67, 0xbe, 0xb0, 0xe8, 0x0d, 0x3b,
  0x7d, 0xf8, 0xe5, 0x3d, 0xdb, 0xd5, 0xb5, 0x3c, 0xc8, 0x7e, 0xdb, 0x3d,
  0xe7, 0x5e, 0xbc, 0xbe, 0x9e, 0x93, 0x80, 0xbe, 0xd5, 0x68, 0x26, 0x3e,
  0x7b, 0x94, 0xe0, 0xbd, 0x5e, 0x75, 0x38, 0xbd, 0xb4, 0x40, 0x2f, 0xbe,
  0x56, 0x79, 0xd8, 0xbd, 0xf5, 0xb8, 0x1b, 0x3e, 0x39, 0x10, 0xd9, 0x3d,
  0x94, 0xc0, 0x05, 0x3d, 0x06, 0x07, 0xf9, 0x3c, 0x58, 0x23, 0x87, 0xbe,
  0x5c, 0x7f, 0x90, 0x3e, 0xea, 0x36, 0x34, 0x3e, 0x78, 0x68, 0x41, 0xbe,
  0x1a, 0x3d, 0x15, 0x3d, 0x62, 0x98, 0xfc, 0x3d, 0x9b, 0x75, 0x41, 0xbe,
  0xea, 0xf4, 0x08, 0xbe, 0x7d, 0xfc, 0xea, 0x3d, 0x36, 0xff, 0x2e, 0xbd,
  0x17, 0x93, 0x14, 0xbe, 0x9d, 0x01, 0x1a, 0xbc, 0x88, 0xc2, 0x01, 0xbd,
  0xd0, 0x6e, 0x04, 0x3e, 0x0a, 0xd4, 0xec, 0xbe, 0x49, 0xba, 0x5f, 0xbd,
  0xb2, 0x96, 0xf9, 0xbc, 0xcc, 0x51, 0x9a, 0xbe, 0x23, 0xce, 0xe5, 0xbc,
  0x59, 0xff, 0x1b, 0x3e, 0xca, 0xaf, 0xc5, 0xbd, 0x4f, 0x9b, 0xec, 0x3d,
  0xa7, 0x3e, 0x6c, 0xbd, 0x69, 0x76, 0x54, 0xbe, 0xa0, 0xdc, 0x07, 0xbe,
  0x9b, 0xaa, 0x4e, 0xbe, 0xdd, 0x2e, 0x83, 0x3d, 0x8c, 0xf0, 0xb3, 0x3d,
  0xb6, 0x08, 0xc7, 0xbd, 0x1e, 0xd0, 0x97, 0x3e, 0x77, 0xe3, 0x84, 0x3e,
  0x7e, 0xa7, 0xe4, 0x3c, 0xcf, 0x56, 0x25, 0xbe, 0x14, 0xa2, 0x8e, 0xbe,
  0x7b, 0x0e, 0x25, 0xbe, 0xff, 0x5d, 0x69, 0xbe, 0x14, 0x1a, 0x5e, 0x3e,
  0xa3, 0x59, 0x22, 0xbb, 0xa7, 0x6c, 0x2e, 0x3e, 0x78, 0xe6, 0x9d, 0x3c,
  0xd1, 0x70, 0xb9, 0xbd, 0xa7, 0xb6, 0xfd, 0xbc, 0xee, 0xf5, 0x39, 0xbd,
  0xc0, 0xdb, 0x8c, 0x3d, 0x2e, 0x80, 0x04, 0x3d, 0x75, 0xe1, 0xa4, 0xbd,
  0x65, 0xd5, 0x0e, 0x3e, 0xe6, 0x51, 0x05, 0x3e, 0x84, 0xf6, 0xa7, 0xbe,
  0xfc, 0xcc, 0x31, 0xbe, 0xfc, 0x43, 0x70, 0xbd, 0x31, 0x61, 0xff, 0xbe,
  0x94, 0xf7, 0x25, 0xbc, 0xeb, 0x1e, 0x17, 0x3e, 0xd8, 0x15, 0xdd, 0xba,
  0x40, 0x06, 0xe0, 0xbe, 0x5f, 0xae, 0xf2, 0xbe, 0xf2, 0xb0, 0x26, 0xbe,
  0x03, 0xf1, 0xa4, 0x3c, 0x0b, 0x73, 0xb3, 0xbd, 0xba, 0xd5, 0x58, 0x3d,
  0x29, 0xb5, 0xd4, 0x3d, 0x2c, 0x36, 0x4e, 0xbe, 0xf9, 0xc9, 0x26, 0xbe,
  0xf6, 0xfd, 0x8a, 0xbe, 0xd2, 0x32, 0x34, 0x3e, 0xe4, 0xfb, 0x32, 0x3d,
  0x10, 0x90, 0xd1, 0x3d, 0xc6, 0x5e, 0x88, 0x3c, 0x16, 0x2c, 0x20, 0xbc,
  0xf7, 0xb2, 0x04, 0xbe, 0x12, 0x88, 0x6b, 0x3d, 0xe5, 0x9b, 0x53, 0x3e,
  0x21, 0xb9, 0xc9, 0x3d, 0x71, 0x9f, 0x10, 0xbe, 0x4a, 0xc1, 0x5a, 0x3e,
  0xdc, 0x2f, 0x47, 0xbd, 0x58, 0xc1, 0x2b, 0xbe, 0x3e, 0xb4, 0x27, 0xbd,
  0x6b, 0x90, 0x15, 0xbd, 0x83, 0x84, 0x34, 0x3e, 0x18, 0xfa, 0xba, 0xbd,
  0x66, 0x69, 0x60, 0xbd, 0x69, 0xda, 0x62, 0xbc, 0xfe, 0x79, 0x1b, 0xbe,
  0x14, 0xe6, 0x69, 0x3e, 0xb3, 0xa2, 0xf1, 0x3c, 0x44, 0x20, 0x33, 0x3e,
  0xc3, 0xe1, 0x85, 0xbd, 0x35, 0x45, 0x02, 0xbe, 0xff, 0x01, 0x30, 0x3d,
  0xd2, 0x02, 0x4d, 0xba, 0x02, 0x53, 0xa2, 0x3e, 0x26, 0x98, 0xed, 0x3d,
  0x87, 0x6c, 0x2b, 0xbd, 0xf8, 0x3d, 0xaf, 0x3d, 0xaf, 0x85, 0x24, 0xbe,
  0xb9, 0xd5, 0xd6, 0xbd, 0x8e, 0x44, 0x26, 0x3e, 0x52, 0x08, 0x23, 0x3e,
  0x96, 0x10, 0x26, 0xbd, 0x3d, 0x12, 0xbc, 0xbd, 0x25, 0x03, 0xd4, 0xbd,
  0x32, 0x83, 0x97, 0xbc, 0x51, 0xaa, 0x4c, 0x3e, 0x83, 0x9d, 0xd5, 0x3d,
  0x82, 0xea, 0x82, 0x3e, 0x90, 0xcf, 0x11, 0x3e, 0xba, 0x97, 0x1e, 0x3d,
  0x2b, 0xde, 0x22, 0x3e, 0xe1, 0x6b, 0x25, 0xbe, 0xd2, 0xb6, 0xc1, 0xbd,
  0x16, 0x9e, 0x54, 0x3d, 0x32, 0x99, 0x41, 0x3d, 0x16, 0x00, 0xe4, 0xbd,
  0xf1, 0x3d, 0xb0, 0xbe, 0x6f, 0x46, 0xa9, 0xbc, 0x4b, 0x07, 0xe2, 0x3d,
  0x46, 0xd6, 0x22, 0x3e, 0xe9, 0x6c, 0xc3, 0xbe, 0xe6, 0x87, 0xf2, 0xbe,
  0xe3, 0x28, 0x09, 0x3e, 0x1d, 0x72, 0x3a, 0xbe, 0x85, 0x0a, 0xc3, 0xbe,
  0x99, 0x62, 0x06, 0xbe, 0xc1, 0xaa, 0x0a, 0xbc, 0xfa, 0x07, 0x13, 0x3e,
  0xe7, 0xa5, 0x62, 0x3e, 0x3e, 0x1f, 0xd2, 0x3d, 0x04, 0xde, 0xe8, 0xbe,
  0xdb, 0x88, 0x16, 0xbe, 0x34, 0x92, 0x14, 0xbe, 0xe8, 0xd3, 0xa0, 0xbe,
  0x79, 0x5b, 0x82, 0xbe, 0x21, 0x6c, 0x80, 0x3e, 0x24, 0x73, 0x49, 0xbe,
  0xd1, 0xfe, 0x98, 0xbe, 0xef, 0xe7, 0x5e, 0xbe, 0x92, 0xc0, 0xe4, 0xbd,
  0xde, 0x46, 0xff, 0xbd, 0x6d, 0xa7, 0x2d, 0x3d, 0xa0, 0xe9, 0xac, 0x3c,
  0x1b, 0x44, 0x78, 0x3e, 0xdd, 0x71, 0x3a, 0xbe, 0x8b, 0x89, 0x01, 0xbf,
  0xf3, 0xc1, 0x18, 0xbe, 0x7c, 0x43, 0xe0, 0xbd, 0x8a, 0x31, 0x33, 0xbe,
  0xd3, 0x54, 0x48, 0x3e, 0x78, 0xe4, 0x75, 0xbe, 0x6b, 0x02, 0x1e, 0xbe,
  0xf0, 0x0f, 0x7a, 0xbd, 0xb8, 0x87, 0xb7, 0x3c, 0xb4, 0xce, 0x4b, 0xbe,
  0x40, 0xf8, 0x61, 0x3d, 0x6c, 0x32, 0x66, 0x3e, 0x0c, 0xd4, 0x08, 0xbe,
  0x2d, 0x62, 0x88, 0xbc, 0x4c, 0x1f, 0xd9, 0xbd, 0xbd, 0x29, 0xb2, 0xbd,
  0x60, 0x2a, 0x01, 0x3e, 0x63, 0x3a, 0x5c, 0x3e, 0xa5, 0x36, 0x6e, 0xbe,
  0xca, 0x69, 0xa7, 0xbe, 0xdb, 0x22, 0x60, 0xbe, 0xfd, 0xac, 0x62, 0xbd,
  0x24, 0x7e, 0x74, 0xbd, 0x30, 0x10, 0xe0, 0xbd, 0x91, 0x84, 0x4d, 0x3e,
  0x5c, 0x24, 0xe4, 0xbe, 0x1d, 0xc6, 0x05, 0xbe, 0xb1, 0x56, 0x3a, 0x3d,
  0x4b, 0x5a, 0xc0, 0xbe, 0x15, 0xce, 0x8d, 0xba, 0x94, 0x24, 0xb5, 0xbd,
  0x73, 0x49, 0x0f, 0xbe, 0xa1, 0xd6, 0x39, 0xbe, 0x58, 0x32, 0xfc, 0xbd,
  0x46, 0xe0, 0x32, 0x3d, 0x56, 0x2e, 0x58, 0xbc, 0xb6, 0x5a, 0x52, 0xbe,
  0xd4, 0x0f, 0x39, 0x3e, 0x61, 0x20, 0x8a, 0xbe, 0xf2, 0x44, 0x74, 0xbe,
  0xb0, 0x12, 0xfa, 0xbb, 0x7f, 0xab, 0x84, 0xbe, 0x78, 0x92, 0x0a, 0xbd,
  0x75, 0x80, 0xc3, 0xbd, 0xd5, 0x15, 0x88, 0xbe, 0xef, 0x17, 0x84, 0xbd,
  0x9a, 0x3d, 0x0e, 0xbe, 0xe7, 0x71, 0xc5, 0x3d, 0xa4, 0x7e, 0x8a, 0xbe,
  0x32, 0xa6, 0x16, 0xbd, 0x49, 0xdb, 0x36, 0x3d, 0x93, 0xbc, 0x31, 0x3e,
  0x11, 0x5e, 0xd5, 0xbd, 0x35, 0xde, 0xed, 0xbd, 0xbe, 0xd3, 0xac, 0xbc,
  0x37, 0x9e, 0x98, 0xbe, 0xb2, 0x12, 0x28, 0xbe, 0x4e, 0x70, 0xcd, 0x3e,
  0x45, 0x25, 0x64, 0x3e, 0x4c, 0xf5, 0x35, 0x3e, 0x50, 0x37, 0x2f, 0x3e,
  0xc8, 0x6d, 0x33, 0x3e, 0x8a, 0x93, 0x08, 0xbf, 0x2d, 0xdd, 0x25, 0xbf,
  0xed, 0x68, 0xbc, 0xbd, 0xa3, 0x82, 0x18, 0xbe, 0x69, 0xbe, 0x07, 0xbd,
  0xda, 0x97, 0x0d, 0x3c, 0xd4, 0xa1, 0xdf, 0x3d, 0xe4, 0x22, 0xd7, 0xbd,
  0x40, 0x42, 0x6b, 0x3e, 0xd8, 0x7b, 0x3f, 0xbe, 0xc5, 0xd4, 0xe5, 0xbe,
  0x11, 0x2d, 0xc9, 0xbd, 0x3b, 0x34, 0xdd, 0x3d, 0xfb, 0xc0, 0xb3, 0xbd,
  0xf4, 0x71, 0xcc, 0xbd, 0x3f, 0x1a, 0x51, 0x3e, 0x5d, 0xe9, 0xd5, 0xbe,
  0x1e, 0x94, 0x7e, 0xbe, 0xac, 0xdb, 0x3b, 0xbb, 0xfd, 0xac, 0xa8, 0xbe,
  0xc6, 0xfc, 0x54, 0xbe, 0x5b, 0x40, 0x13, 0xbc, 0x04, 0xcc, 0x6c, 0xbe,
  0x1d, 0xf7, 0x53, 0x3d, 0x0a, 0xb0, 0xde, 0xbc, 0xde, 0xe0, 0xd0, 0x3d,
  0x3f, 0x14, 0x8f, 0x3d, 0x16, 0x9a, 0xe1, 0xbc, 0xfd, 0xe1, 0x1b, 0x3e,
  0xc4, 0x81, 0xe1, 0xbd, 0x7a, 0x3a, 0x0a, 0x3e, 0xee, 0x86, 0xc9, 0xbe,
  0x9d, 0xb0, 0x8d, 0xbe, 0xf6, 0xfe, 0x6a, 0xbd, 0x72, 0xda, 0x2e, 0xbe,
  0x7e, 0x3f, 0x0c, 0xbe, 0x22, 0x2c, 0x77, 0xbc, 0xb5, 0x70, 0x03, 0xbf,
  0x9e, 0x54, 0x39, 0x3e, 0xc9, 0x89, 0x1d, 0xbe, 0xca, 0xa8, 0x87, 0xbd,
  0xe8, 0x02, 0x91, 0xbb, 0x16, 0x6d, 0xb2, 0xbe, 0x85, 0xcf, 0x26, 0xbd,
  0x5d, 0x78, 0xb0, 0xbd, 0x25, 0x49, 0x85, 0x3e, 0x0c, 0x58, 0xf9, 0xbd,
  0x0d, 0x30, 0x14, 0x3f, 0x74, 0x6e, 0x25, 0xbe, 0x23, 0xab, 0xc7, 0x3b,
  0xa2, 0x2b, 0xbe, 0xbd, 0x80, 0x9c, 0x98, 0xbd, 0x89, 0x10, 0x94, 0xbc,
  0x8e, 0x38, 0x75, 0x3d, 0xdf, 0x85, 0x1e, 0x3e, 0x49, 0x90, 0x52, 0x3d,
  0xd1, 0x29, 0x54, 0x3d, 0xc9, 0xd5, 0x34, 0x3d, 0x3c, 0x2b, 0x14, 0x3d,
  0x3b, 0xe2, 0x8f, 0x3e, 0x0c, 0x95, 0xd9, 0xbd, 0x69, 0xfa, 0x9e, 0x3d,
  0xb0, 0x08, 0x19, 0xbd, 0x47, 0x46, 0xd5, 0x3d, 0x6c, 0x44, 0xac, 0xbe,
  0xc9, 0xa9, 0x29, 0x3e, 0x78, 0x0c, 0x82, 0x3e, 0xa0, 0xc8, 0x51, 0xbe,
  0xb2, 0xa3, 0xc0, 0xbd, 0x3e, 0x6d, 0x44, 0x3e, 0x7f, 0xf7, 0x41, 0xbe,
  0x1d, 0xb0, 0xa8, 0x3d, 0x1a, 0xd5, 0xe2, 0x3d, 0x94, 0x97, 0x74, 0x3e,
  0x1b, 0x23, 0x4f, 0x3e, 0xd3, 0x05, 0x8e, 0xbc, 0xac, 0x51, 0x2c, 0xbc,
  0xae, 0xb0, 0xbf, 0x3d, 0xb1, 0xcb, 0x8f, 0x3e, 0x3a, 0xd3, 0x9f, 0x3e,
  0x26, 0x09, 0x3c, 0x3d, 0xbc, 0x88, 0x02, 0xbf, 0x43, 0xa0, 0x14, 0x3e,
  0xd6, 0x3d, 0x51, 0xbe, 0xd7, 0x2c, 0xef, 0x3d, 0xa3, 0x53, 0x24, 0x3d,
  0x9a, 0x8e, 0x94, 0xbc, 0x71, 0x25, 0x01, 0xbe, 0x3d, 0x2c, 0x0a, 0x3e,
  0x47, 0x89, 0xbb, 0x3d, 0x69, 0x9f, 0x61, 0x3e, 0x88, 0xb8, 0x5f, 0x3e,
  0x98, 0x0e, 0x0a, 0x3e, 0x02, 0xef, 0x88, 0x3e, 0x03, 0x2c, 0xcf, 0x3d,
  0x59, 0x5c, 0x76, 0x3e, 0x01, 0x25, 0x53, 0xbe, 0x64, 0x2d, 0x16, 0x3e,
  0xf7, 0x41, 0x35, 0x3d, 0x99, 0x2d, 0x6a, 0xbe, 0xd6, 0x9e, 0x01, 0x3e,
  0x9d, 0xa0, 0xaa, 0xbe, 0x84, 0x0c, 0x57, 0x3e, 0xf5, 0xd4, 0x05, 0x3e,
  0x34, 0xff, 0x6d, 0x3e, 0x24, 0x7c, 0x24, 0x3e, 0x88, 0xa8, 0xf0, 0xbe,
  0x16, 0x97, 0x06, 0x3d, 0xff, 0xca, 0x6f, 0xbd, 0x38, 0x15, 0xc0, 0x3b,
  0xd6, 0xe3, 0x31, 0x3d, 0xbe, 0x14, 0x6f, 0x3d, 0x02, 0x4c, 0x83, 0xbe,
  0xce, 0xdd, 0xec, 0x3d, 0x35, 0xa6, 0x96, 0x3d, 0x86, 0xd0, 0x4d, 0xbe,
  0x8e, 0x67, 0xd5, 0xbd, 0x17, 0xf5, 0xbc, 0x3e, 0x74, 0x3a, 0x8d, 0x3d,
  0xa1, 0xad, 0xb5, 0xbc, 0xaa, 0x15, 0x10, 0xbe, 0x22, 0xd5, 0xa5, 0x3d,
  0x6b, 0x80, 0xa1, 0x3e, 0x70, 0x12, 0x94, 0x3d, 0x21, 0x6a, 0x55, 0x3e,
  0x13, 0x2b, 0x05, 0x3e, 0x01, 0x92, 0x02, 0xbe, 0xb0, 0x8b, 0x28, 0xbe,
  0x6e, 0x44, 0x9e, 0xbe, 0xd6, 0x36, 0x25, 0x3e, 0x2a, 0x60, 0x2a, 0x3e,
  0x42, 0x43, 0x18, 0x3e, 0xe2, 0xea, 0xfb, 0xbd, 0x04, 0x0f, 0x5a, 0xbd,
  0x9d, 0x67, 0x54, 0xbe, 0xc8, 0x92, 0x34, 0x3d, 0x9a, 0x18, 0x2e, 0xbd,
  0x3d, 0x62, 0x87, 0x3d, 0x27, 0xd7, 0x43, 0xbe, 0x28, 0x49, 0xbf, 0x3d,
  0xc0, 0x57, 0x5e, 0x3e, 0x3b, 0xec, 0x8d, 0xbd, 0xa3, 0x1e, 0x8c, 0x3e,
  0x4f, 0xb3, 0x1c, 0x3e, 0x56, 0xe4, 0x80, 0x3e, 0xab, 0x9a, 0x5f, 0xbe,
  0xb5, 0x41, 0xa6, 0xbd, 0x81, 0x05, 0xab, 0xbe, 0xc9, 0xa4, 0xb3, 0x3d,
  0x9f, 0x2a, 0x58, 0x3e, 0x27, 0xfb, 0xb7, 0x3d, 0x3d, 0x8c, 0x86, 0xbe,
  0xd9, 0x91, 0xf3, 0x3d, 0x3f, 0x35, 0xde, 0xbd, 0x6c, 0x34, 0x02, 0x3e,
  0xf2, 0xf6, 0x65, 0x3e, 0x3f, 0x5d, 0x5b, 0x3d, 0x21, 0xe9, 0x85, 0xbc,
  0x9e, 0xa4, 0xcf, 0x3e, 0xdd, 0x86, 0x50, 0x3b, 0x6d, 0x02, 0xd2, 0xbd,
  0x56, 0x90, 0xad, 0xbd, 0x22, 0x8c, 0x6b, 0x3e, 0x91, 0x72, 0x1d, 0x3d,
  0x88, 0xb8, 0x6d, 0x3e, 0x8e, 0xd3, 0x67, 0xbe, 0xec, 0x25, 0x17, 0x3e,
  0xac, 0xbc, 0xb3, 0x3e, 0x96, 0x96, 0x2b, 0x3e, 0xf3, 0x57, 0x30, 0xbe,
  0x07, 0x8f, 0x98, 0xbe, 0x18, 0x6e, 0x97, 0x3d, 0x5c, 0x31, 0x46, 0xbe,
  0xc9, 0x37, 0xa2, 0x3c, 0x69, 0xcf, 0x5b, 0xbe, 0xac, 0x34, 0x54, 0x3e,
  0x3b, 0x50, 0x6d, 0x3d, 0x6a, 0xdf, 0x33, 0xbd, 0xa4, 0xbc, 0x03, 0xbe,
  0x3d, 0x04, 0x38, 0x3e, 0xc4, 0x45, 0x10, 0x3e, 0xbe, 0x85, 0x0c, 0x3e,
  0x4a, 0xc0, 0x75, 0x3e, 0xa1, 0x39, 0x6b, 0xbc, 0xe3, 0x6d, 0xe7, 0xbc,
  0x7d, 0xd9, 0xdf, 0xba, 0x1b, 0x7c, 0xb7, 0x3d, 0x01, 0x93, 0x6d, 0x3e,
  0x47, 0xce, 0xa2, 0x3e, 0x6d, 0x50, 0xd2, 0xbd, 0x4b, 0xb5, 0x58, 0x3e,
  0xb2, 0x70, 0x26, 0x3e, 0x72, 0x76, 0xcf, 0xbd, 0xde, 0x1b, 0xb4, 0xbd,
  0x66, 0x64, 0x61, 0x3e, 0x42, 0xd7, 0x3d, 0xbe, 0xc9, 0x55, 0x8a, 0xbe,
  0xec, 0x5b, 0x92, 0x3e, 0x7c, 0xbf, 0x86, 0xbe, 0x94, 0x8a, 0xbd, 0x3d,
  0xa9, 0x99, 0x43, 0x3e, 0x52, 0x9a, 0x69, 0x3c, 0x5f, 0x5d, 0xd3, 0x3d,
  0x05, 0x01, 0x0e, 0x3e, 0xaa, 0x12, 0xa8, 0x3e, 0x2b, 0x22, 0x36, 0x3d,
  0xf3, 0xb4, 0xa4, 0x3e, 0x9e, 0xa1, 0x02, 0x3f, 0xac, 0x70, 0x15, 0x3e,
  0xdd, 0xd1, 0x80, 0xbe, 0xc8, 0x6d, 0xab, 0x3c, 0xcb, 0xdc, 0xbd, 0x3d,
  0xea, 0xf1, 0x1f, 0x3e, 0x07, 0x66, 0x15, 0xbc, 0x63, 0xd6, 0x5a, 0x3d,
  0xad, 0xdf, 0x88, 0xbe, 0xb6, 0x9c, 0x4c, 0x3d, 0x16, 0xde, 0x09, 0xbe,
  0xfc, 0xd9, 0x60, 0x3e, 0x03, 0xdd, 0xae, 0x3d, 0x56, 0xfe, 0x4f, 0x3d,
  0xd5, 0x05, 0x8a, 0x3e, 0xd7, 0x3a, 0x96, 0x3e, 0xf6, 0xbb, 0xed, 0x3d,
  0x37, 0x27, 0x8a, 0xbd, 0xc0, 0x43, 0x5e, 0x37, 0x5f, 0x56, 0xaa, 0xbd,
  0xc3, 0x60, 0x05, 0xbc, 0xf8, 0x71, 0x91, 0x3d, 0x38, 0xa4, 0xa2, 0xbe,
  0x88, 0x2e, 0xd1, 0x3d, 0x61, 0xd0, 0x66, 0x3e, 0xc3, 0x5c, 0x23, 0x3d,
  0x44, 0x6e, 0xc5, 0x3d, 0x8e, 0x4f, 0xb4, 0xbe, 0x64, 0x70, 0x81, 0xbe,
  0xbc, 0xea, 0x90, 0x3d, 0xd4, 0xb9, 0xa4, 0x3d, 0xf5, 0x9e, 0x0c, 0x3e,
  0x24, 0x5a, 0xf9, 0xbe, 0x17, 0x2e, 0x82, 0x3d, 0x78, 0xa7, 0x43, 0x3e,
  0x79, 0xf1, 0x19, 0x3e, 0x7b, 0xe0, 0x83, 0xbe, 0xca, 0x4c, 0xcf, 0x3d,
  0x5c, 0x1f, 0xb7, 0xbe, 0x02, 0x64, 0x93, 0xbe, 0x8f, 0xe9, 0xf1, 0x3d,
  0xfe, 0xb5, 0xbf, 0xbd, 0xd4, 0xe4, 0x01, 0x3e, 0x7f, 0x64, 0xa7, 0xbe,
  0x45, 0xf9, 0x90, 0xbe, 0x81, 0xfd, 0xf5, 0xbd, 0x6b, 0x7a, 0x3d, 0xbe,
  0x2e, 0xbe, 0xb4, 0xbe, 0xfa, 0x61, 0xb3, 0xbd, 0x09, 0x04, 0x21, 0x3e,
  0xfc, 0xf3, 0x13, 0xbe, 0x6b, 0xf3, 0xcb, 0xbd, 0xee, 0xb2, 0x89, 0xbd,
  0x90, 0x6a, 0xdc, 0xbc, 0xec, 0x79, 0xb6, 0xbe, 0x10, 0x29, 0x34, 0x3e,
  0xc9, 0xcd, 0x6f, 0xbe, 0xd7, 0x8d, 0xa4, 0x3d, 0xe2, 0x6b, 0xb3, 0xbe,
  0x27, 0x34, 0x25, 0xbe, 0x10, 0x93, 0x3e, 0x3e, 0x3e, 0xa0, 0x61, 0xbe,
  0x73, 0xfa, 0xab, 0x3d, 0x2b, 0x81, 0x8f, 0xbe, 0x68, 0xf4, 0xd5, 0x3d,
  0x8c, 0x88, 0xc1, 0xbd, 0x8b, 0xc5, 0x21, 0x3e, 0x41, 0xed, 0x8d, 0xbe,
  0x62, 0x35, 0x52, 0x3e, 0x41, 0xd4, 0x74, 0xbe, 0xa5, 0xf0, 0x89, 0xbe,
  0x9c, 0x83, 0xd4, 0xbe, 0x2b, 0xd0, 0x8d, 0x3d, 0x91, 0x17, 0x1d, 0xbe,
  0xba, 0xaa, 0x09, 0xbe, 0x1f, 0x36, 0xd0, 0x3c, 0x6c, 0x3e, 0x29, 0xbe,
  0x6e, 0x0f, 0x34, 0x3e, 0xb8, 0xaf, 0x92, 0xbe, 0x93, 0x30, 0xeb, 0xbe,
  0x61, 0x59, 0x0a, 0xbc, 0x98, 0xb6, 0x4c, 0x3e, 0x38, 0xcb, 0x87, 0xbe,
  0x5d, 0xf1, 0xdc, 0xbe, 0x39, 0x61, 0xfb, 0x3c, 0x29, 0xd8, 0x95, 0x3e,
  0xe5, 0xed, 0x07, 0x3e, 0xb3, 0x15, 0xbe, 0x3d, 0x36, 0x5c, 0xae, 0xbd,
  0x17, 0xbe, 0x85, 0x3c, 0x11, 0x34, 0xfe, 0x3b, 0x3a, 0xf2, 0xe9, 0xbd,
  0x73, 0x8b, 0x9a, 0x3b, 0x4e, 0x7e, 0x9f, 0xbd, 0x8c, 0x15, 0xc5, 0xbc,
  0xb7, 0x66, 0xa7, 0x3d, 0x5f, 0xad, 0x6e, 0xbe, 0xd4, 0x49, 0x4b, 0x3c,
  0x16, 0x8f, 0xa4, 0x3e, 0x94, 0x69, 0xe2, 0xbd, 0x5f, 0xc6, 0x97, 0xbd,
  0xeb, 0x88, 0x92, 0x3c, 0x59, 0x5d, 0x36, 0xbe, 0x8b, 0xe1, 0x30, 0xbe,
  0x5b, 0x04, 0x69, 0x3e, 0x3f, 0x8b, 0xd9, 0x3c, 0x1c, 0x2c, 0x2b, 0xbe,
  0xf9, 0x35, 0xbd, 0xbe, 0xe4, 0x13, 0xef, 0x3c, 0x40, 0xb2, 0x95, 0xbe,
  0x1e, 0x12, 0xad, 0xbe, 0xd1, 0x7e, 0x7d, 0xbe, 0x0f, 0xb3, 0x0f, 0x3d,
  0xa6, 0x31, 0xa7, 0x3e, 0xa6, 0x46, 0xd4, 0xbc, 0x31, 0xa9, 0x44, 0xbe,
  0x88, 0xcc, 0x29, 0x3e, 0x64, 0x8a, 0xab, 0xbd, 0x60, 0x5b, 0xc7, 0xbe,
  0xee, 0xb0, 0x0a, 0x3e, 0x45, 0x4e, 0x74, 0xbe, 0xe5, 0x5d, 0x58, 0x3e,
  0xed, 0xdc, 0x84, 0xbd, 0x03, 0x17, 0xe1, 0xbd, 0xe2, 0x81, 0xf5, 0xbd,
  0x39, 0xdc, 0xa5, 0x3e, 0x51, 0xd3, 0x6a, 0x3e, 0x78, 0xa9, 0x8a, 0x3c,
  0xa8, 0x2c, 0x71, 0xbe, 0xfb, 0x24, 0xe2, 0xbd, 0x37, 0x06, 0x9b, 0x3d,
  0x00, 0xef, 0x78, 0xbd, 0xfa, 0x39, 0xc6, 0x3d, 0xd7, 0xcc, 0x01, 0xbe,
  0xc3, 0xf5, 0xef, 0xbd, 0xd0, 0x07, 0x23, 0xbe, 0x86, 0x0b, 0x0f, 0x3d,
  0x3d, 0x2a, 0xae, 0xbc, 0x00, 0x43, 0x17, 0xbe, 0xb7, 0x39, 0x2b, 0x3e,
  0x06, 0xe4, 0x14, 0xbe, 0xf7, 0x1f, 0x2b, 0x3e, 0x83, 0x13, 0x43, 0xbe,
  0xb3, 0x59, 0x21, 0xbe, 0xf3, 0xe3, 0x1a, 0xbd, 0x1e, 0x0b, 0x80, 0x3e,
  0xa8, 0x9b, 0x2c, 0xbe, 0x82, 0xbb, 0xc5, 0xbd, 0x28, 0x07, 0xc7, 0x3d,
  0xa2, 0x95, 0xa7, 0x3e, 0x03, 0x8a, 0xaf, 0xbe, 0xcd, 0x46, 0x3c, 0x3e,
  0x1e, 0x1d, 0x26, 0xbe, 0xac, 0x40, 0xb3, 0xbe, 0x28, 0xc7, 0xbc, 0xbd,
  0x26, 0xc5, 0x8c, 0x3d, 0xc7, 0xac, 0xbf, 0x3c, 0xbe, 0x87, 0x6a, 0xbe,
  0x34, 0x79, 0x8b, 0x3d, 0x64, 0x7c, 0x69, 0xbe, 0x14, 0x7c, 0x2c, 0x3e,
  0x65, 0x5b, 0xaf, 0xbc, 0x75, 0x44, 0x83, 0xbe, 0x81, 0x6a, 0x30, 0x3e,
  0xc4, 0xe6, 0x8a, 0x3b, 0xd7, 0x09, 0x1d, 0x3d, 0x2e, 0xd6, 0xbb, 0x3d,
  0xfc, 0x8e, 0x93, 0x3e, 0x7e, 0xd6, 0x32, 0xbe, 0xb0, 0x88, 0x07, 0xbe,
  0x21, 0xb0, 0xe0, 0xbd, 0xe5, 0xe3, 0x8a, 0x3e, 0x39, 0x16, 0xe3, 0x3c,
  0x5d, 0x17, 0x9a, 0x3e, 0xe7, 0x7d, 0x99, 0xbd, 0x67, 0xe9, 0xa0, 0x3d,
  0x99, 0xa3, 0xec, 0x3d, 0x7c, 0x92, 0xdc, 0xbd, 0xc5, 0x98, 0x92, 0xbc,
  0x24, 0x76, 0x88, 0x3e, 0xae, 0x05, 0x4f, 0xbe, 0x0e, 0x71, 0x18, 0x3e,
  0x3b, 0xdf, 0x86, 0x3e, 0xb0, 0x59, 0xcf, 0x3c, 0xa8, 0x07, 0x23, 0x3e,
  0xbf, 0xbc, 0xc8, 0xbc, 0xa3, 0xb7, 0xb8, 0x3e, 0x62, 0x8a, 0x82, 0x3e,
  0xaa, 0x79, 0x1e, 0xbe, 0x60, 0x57, 0x72, 0x3d, 0x3f, 0x2b, 0x03, 0xbe,
  0xf0, 0x18, 0x7c, 0xbc, 0x75, 0x8b, 0x7c, 0x3e, 0x3f, 0x67, 0xca, 0x3d,
  0xde, 0x6e, 0xdc, 0xbd, 0x71, 0x19, 0xa3, 0x3d, 0x08, 0xab, 0xb3, 0xbb,
  0x0b, 0xc0, 0xba, 0x3d, 0xaa, 0x20, 0x94, 0x3e, 0xee, 0x3f, 0x70, 0x3d,
  0xe7, 0xa4, 0x55, 0xbe, 0x73, 0x8f, 0xa9, 0x3d, 0xe2, 0xed, 0x54, 0xbe,
  0xef, 0x32, 0xbc, 0xbd, 0x7e, 0x53, 0x4b, 0x3e, 0x2d, 0xbe, 0x33, 0x3e,
  0x22, 0xc0, 0x06, 0x3e, 0x5e, 0xce, 0x7c, 0x3c, 0xbf, 0xea, 0x7d, 0x3e,
  0x8f, 0x52, 0x6d, 0xbd, 0x3e, 0x90, 0xcf, 0x3d, 0x05, 0xe5, 0x67, 0x3d,
  0x91, 0x59, 0xbb, 0x3d, 0x79, 0x0d, 0x75, 0xbe, 0x8f, 0x46, 0xac, 0xbe,
  0x59, 0x7e, 0x7d, 0x3d, 0xbd, 0x97, 0xe4, 0x3d, 0x92, 0xd2, 0x4a, 0x3d,
  0xed, 0x27, 0xe4, 0x3d, 0xe8, 0xde, 0x10, 0xbe, 0x33, 0xcc, 0xc5, 0x3a,
  0x7e, 0x90, 0x47, 0x3d, 0x35, 0xac, 0x3e, 0xbd, 0x9a, 0xba, 0x9a, 0x3c,
  0x5e, 0xd7, 0xe4, 0x3e, 0x47, 0x69, 0x85, 0xbd, 0xcd, 0x25, 0x26, 0xbd,
  0x5c, 0x93, 0xe6, 0x3d, 0x53, 0x0f, 0x2c, 0x3d, 0xcf, 0x20, 0xae, 0x3d,
  0x37, 0x49, 0x5b, 0x3d, 0xe7, 0x75, 0x81, 0x3e, 0x26, 0x1a, 0x46, 0x3d,
  0xeb, 0xa0, 0xc9, 0xbd, 0x16, 0xc8, 0x04, 0x3c, 0x8c, 0x26, 0x03, 0x3e,
  0x7c, 0x5f, 0x0d, 0x3f, 0x8e, 0x6e, 0xbc, 0x3d, 0x20, 0x81, 0x7c, 0x3e,
  0x34, 0x64, 0xc0, 0xbc, 0xa0, 0xbb, 0x3c, 0x3e, 0x03, 0xc6, 0xe0, 0xbe,
  0xb8, 0xfa, 0x26, 0x3e, 0x9c, 0x64, 0x72, 0x3e, 0xb6, 0x7c, 0x08, 0xbe,
  0x71, 0xf1, 0x53, 0xbd, 0x63, 0x30, 0x19, 0x3e, 0xcb, 0x4f, 0x55, 0xbe,
  0x22, 0xdf, 0x83, 0x3d, 0xb1, 0x1d, 0x46, 0x3e, 0xe4, 0x5a, 0xac, 0x3e,
  0x30, 0x9c, 0xf5, 0x3d, 0xee, 0x0b, 0xc7, 0xbd, 0x7d, 0x56, 0xc4, 0x3c,
  0x4a, 0x8b, 0x26, 0xbd, 0x6b, 0xf4, 0x28, 0x3e, 0xf0, 0x3a, 0x86, 0x3e,
  0x1e, 0xcc, 0x26, 0x3d, 0x73, 0xaf, 0xf4, 0x3c, 0x3d, 0xc0, 0xb8, 0x3e,
  0xbf, 0x0b, 0xb3, 0x3c, 0x9a, 0xcd, 0x26, 0x3e, 0x6d, 0x75, 0xe7, 0x3c,
  0xab, 0xaf, 0xcb, 0xbc, 0xc9, 0xb8, 0x1d, 0xbe, 0x6c, 0xb6, 0xcd, 0xbd,
  0x56, 0xe7, 0x61, 0xbd, 0x6a, 0x43, 0x05, 0xbe, 0x55, 0x52, 0x4a, 0x3e,
  0x12, 0xac, 0x01, 0x3e, 0x08, 0xfd, 0xa3, 0x3d, 0x86, 0x05, 0x22, 0x3e,
  0x7f, 0x80, 0x9f, 0xbd, 0x13, 0x86, 0xae, 0xbd, 0x1a, 0x6f, 0x90, 0x3e,
  0x18, 0xc9, 0x05, 0x3e, 0xa9, 0xed, 0x23, 0x3d, 0x02, 0x81, 0x99, 0x3d,
  0x09, 0x6c, 0xf3, 0xbe, 0xec, 0x17, 0x1f, 0xbe, 0x39, 0x0f, 0x53, 0x3e,
  0x20, 0x12, 0xe9, 0x3d, 0xcc, 0xa9, 0x19, 0xbe, 0xc6, 0xbe, 0xdb, 0xbe,
  0x6c, 0x2e, 0x43, 0xbc, 0x74, 0xb3, 0x6a, 0xbc, 0xa3, 0xce, 0xe6, 0xbb,
  0xd6, 0x96, 0x60, 0xbe, 0xd4, 0xf2, 0xa5, 0x3e, 0xad, 0xcd, 0xc1, 0xbd,
  0x66, 0x30, 0x6f, 0xbd, 0xea, 0x3a, 0x21, 0xbe, 0xc9, 0xcc, 0xd9, 0x3d,
  0x5a, 0xcb, 0x98, 0xbc, 0x74, 0x84, 0xde, 0x3e, 0x0b, 0x06, 0x62, 0x3e,
  0x25, 0xb2, 0x2b, 0x3d, 0x0f, 0xfb, 0x91, 0xbe, 0x74, 0x8a, 0x93, 0xbd,
  0x2f, 0x79, 0x0f, 0x3e, 0xde, 0xdc, 0x9d, 0x3e, 0x2c, 0x67, 0xd0, 0x3d,
  0x73, 0x18, 0xd3, 0x3c, 0x3c, 0xef, 0xa2, 0x3c, 0x97, 0xac, 0x3f, 0x3e,
  0xf8, 0x7a, 0xc0, 0xbe, 0x26, 0x41, 0x0c, 0xbe, 0xf2, 0xc1, 0xdd, 0x3d,
  0xa8, 0x1c, 0x4f, 0xbc, 0xb7, 0x2c, 0x58, 0xbd, 0x0e, 0xc9, 0x01, 0xbd,
  0xdf, 0xb9, 0xa5, 0xbd, 0x3d, 0xe7, 0xc0, 0x3d, 0x76, 0x9f, 0x06, 0x3e,
  0x55, 0x93, 0x90, 0x3d, 0x30, 0x80, 0x33, 0xbe, 0x78, 0x5f, 0x6a, 0x3d,
  0xca, 0x77, 0x29, 0xbd, 0xbf, 0x84, 0x55, 0x3d, 0x99, 0x73, 0x0c, 0xbe,
  0x81, 0xc3, 0xd5, 0x3e, 0x8c, 0xbd, 0x0f, 0x3e, 0xfe, 0xd6, 0x8b, 0xbe,
  0x63, 0xf5, 0x09, 0x3e, 0x54, 0x70, 0x8a, 0xbe, 0xc8, 0x74, 0x3d, 0x3e,
  0x7e, 0x84, 0x42, 0x3d, 0xa5, 0x87, 0x57, 0xbd, 0x02, 0xc2, 0xf2, 0xbd,
  0xf0, 0x47, 0x69, 0xbc, 0xf7, 0x76, 0x0b, 0x3e, 0x37, 0xde, 0x30, 0x3e,
  0xa7, 0x07, 0x0d, 0x3e, 0x20, 0xeb, 0x6b, 0x3e, 0x5f, 0x6e, 0x08, 0x3e,
  0x01, 0x02, 0xa6, 0x3e, 0x32, 0x31, 0xf0, 0x3d, 0x89, 0x40, 0x14, 0xbe,
  0xef, 0xd4, 0x8e, 0x3e, 0x84, 0x79, 0x8a, 0x3e, 0x69, 0xe8, 0x13, 0xbe,
  0x56, 0xd8, 0x8d, 0x3e, 0xb9, 0x44, 0x58, 0xbe, 0x6f, 0x0a, 0x2e, 0x3e,
  0x22, 0xf1, 0x67, 0xbd, 0x59, 0xca, 0x78, 0x3e, 0xa1, 0x22, 0xfe, 0x3d,
  0x82, 0xec, 0x8b, 0xbe, 0x80, 0xc7, 0x38, 0xbe, 0x6b, 0xa1, 0x70, 0x3e,
  0xc3, 0x0b, 0x04, 0x3e, 0x3e, 0x16, 0x33, 0xbe, 0x45, 0xca, 0x7f, 0xbe,
  0x86, 0xaa, 0x45, 0xbd, 0xc8, 0x31, 0x66, 0x3c, 0xa8, 0xd2, 0x02, 0x3e,
  0x68, 0x3c, 0xf8, 0xbd, 0xcb, 0xcd, 0xc5, 0x3d, 0x83, 0x35, 0xd4, 0xbe,
  0x2b, 0xba, 0x3d, 0xbe, 0x4f, 0x58, 0x1d, 0x3e, 0x20, 0x3a, 0x12, 0x3e,
  0x06, 0x21, 0x68, 0x3d, 0x02, 0x80, 0xd5, 0xbe, 0x82, 0x9a, 0x72, 0xbe,
  0x37, 0xad, 0xcd, 0xbe, 0xf4, 0x27, 0x02, 0xbf, 0xa3, 0x26, 0x48, 0xbd,
  0xe2, 0x44, 0x75, 0xbe, 0x9b, 0x55, 0xdf, 0x3d, 0xa3, 0x69, 0x1d, 0xbe,
  0xdc, 0x59, 0x91, 0xbe, 0xa3, 0x27, 0x8c, 0x3e, 0xfe, 0xd5, 0x6f, 0x3e,
  0xdf, 0x98, 0x07, 0xbf, 0x9e, 0x7d, 0x45, 0x3e, 0x0b, 0xf0, 0xf3, 0xbe,
  0xc5, 0x25, 0x87, 0xbe, 0x22, 0x55, 0x08, 0xbf, 0xb6, 0x9a, 0xad, 0xbe,
  0x80, 0xca, 0x93, 0x3d, 0xb2, 0xcf, 0xb3, 0xbc, 0x2a, 0x53, 0x39, 0x3e,
  0xa9, 0x51, 0xed, 0xbe, 0x35, 0xd7, 0x7b, 0x3d, 0x63, 0xa7, 0xd6, 0xbd,
  0x9a, 0x2c, 0x54, 0x3d, 0x3d, 0x96, 0x22, 0xbf, 0x38, 0xa2, 0x36, 0x3e,
  0x3b, 0xd3, 0x9c, 0x3c, 0xa5, 0x5e, 0xa2, 0xbe, 0x20, 0x4f, 0x67, 0xbe,
  0xb4, 0xaf, 0x2b, 0xbd, 0x5e, 0x05, 0x90, 0x3d, 0x4e, 0xac, 0xeb, 0x3d,
  0xe2, 0xd1, 0x28, 0x3e, 0xd1, 0x77, 0xb4, 0xbe, 0x78, 0x14, 0x9e, 0x3e,
  0x09, 0xcd, 0x68, 0x3d, 0x94, 0x6f, 0xcf, 0xbd, 0x58, 0x71, 0x7b, 0x3e,
  0x38, 0x24, 0x3d, 0x3d, 0xba, 0x51, 0x26, 0xbe, 0x72, 0xad, 0xc5, 0xbe,
  0xbd, 0x46, 0x5b, 0xbb, 0xe7, 0xb9, 0xc1, 0xbd, 0xc8, 0xfa, 0xcc, 0x3d,
  0xeb, 0xc3, 0x88, 0xbd, 0x78, 0x31, 0x55, 0xbe, 0x88, 0x23, 0xd6, 0x3d,
  0x53, 0xce, 0x24, 0x3d, 0x66, 0x9e, 0xcb, 0x3d, 0xf7, 0x6e, 0x6b, 0xbc,
  0xf3, 0x62, 0x44, 0x3e, 0x9f, 0x8d, 0x4e, 0xbd, 0x66, 0xf3, 0x80, 0x3e,
  0x66, 0x1c, 0xcd, 0xbe, 0xb5, 0x6c, 0x4d, 0xbd, 0x80, 0x1b, 0x72, 0xbe,
  0xe9, 0x4c, 0x4c, 0x3e, 0x0c, 0x89, 0xba, 0xbd, 0xf1, 0xe7, 0x48, 0xbe,
  0x5b, 0x7e, 0x0c, 0xbf, 0x7b, 0xe2, 0x9b, 0xbe, 0xd5, 0x1c, 0x5a, 0xba,
  0x8d, 0xeb, 0x4f, 0xbe, 0xeb, 0x29, 0x24, 0x3e, 0xc2, 0x0b, 0x81, 0xbe,
  0xd4, 0x1f, 0xad, 0xbd, 0x55, 0x9d, 0x20, 0xbf, 0x76, 0x52, 0x6e, 0xbe,
  0xa2, 0x38, 0x60, 0xbe, 0x29, 0x2f, 0xaa, 0x3d, 0x4c, 0x79, 0xc8, 0xbd,
  0x27, 0xab, 0xc7, 0xbe, 0xec, 0x93, 0x45, 0xbd, 0x8e, 0x6f, 0xc0, 0xbe,
  0xbc, 0x8d, 0x1b, 0xbe, 0xd5, 0x1c, 0x01, 0xbf, 0x5a, 0xfa, 0xa7, 0x3d,
  0x2d, 0x7d, 0x0f, 0xbf, 0x5b, 0x19, 0x83, 0x3d, 0x53, 0xc1, 0x37, 0xbe,
  0x5b, 0xcd, 0xea, 0xbd, 0x3e, 0xbe, 0xa2, 0x3e, 0x00, 0x41, 0x1c, 0xbe,
  0x8d, 0xb5, 0x27, 0xbe, 0x0c, 0x07, 0x2c, 0xbf, 0x33, 0x59, 0x16, 0xbe,
  0xa6, 0x5d, 0xd8, 0xbe, 0xd7, 0x36, 0xce, 0xbd, 0x08, 0x40, 0xd9, 0xbe,
  0x40, 0xd9, 0x18, 0x3d, 0x6b, 0x39, 0x2f, 0x3e, 0x35, 0xa1, 0xd0, 0xbe,
  0x1a, 0x77, 0x24, 0x3e, 0x3f, 0x86, 0x6b, 0xbc, 0x0b, 0xcb, 0x59, 0xbd,
  0x88, 0x3c, 0x19, 0xbe, 0x59, 0x58, 0xf4, 0xbd, 0x65, 0x79, 0x18, 0xbe,
  0xc0, 0x5d, 0x44, 0xbd, 0x2f, 0x67, 0x8a, 0xbe, 0xb6, 0x3e, 0x6e, 0xbe,
  0x3b, 0xab, 0xf5, 0x3d, 0x43, 0x64, 0x9d, 0xbe, 0xe1, 0x69, 0x25, 0x3c,
  0x1f, 0x09, 0xa4, 0xbd, 0x5a, 0x95, 0x8b, 0xbe, 0xa2, 0x2a, 0xd6, 0xbd,
  0xa1, 0xe4, 0x68, 0x3e, 0xa9, 0x1f, 0x3d, 0xbe, 0xce, 0x89, 0x6b, 0xbe,
  0x99, 0x66, 0x75, 0x3e, 0xc8, 0x28, 0x4b, 0xbe, 0xa0, 0xbc, 0xab, 0x3e,
  0x89, 0xf9, 0x18, 0x3d, 0xc1, 0x60, 0x98, 0xbd, 0x31, 0xde, 0x24, 0xbe,
  0x98, 0x4d, 0xf4, 0xbc, 0x80, 0x32, 0xb0, 0x3c, 0x5a, 0x1b, 0x3b, 0xbe,
  0x37, 0x92, 0xd7, 0xbb, 0x61, 0xc5, 0x64, 0x3d, 0x0e, 0x00, 0xce, 0x3e,
  0xde, 0xc8, 0xb7, 0x3c, 0x89, 0x47, 0x97, 0x3e, 0x9e, 0xaa, 0x6a, 0x3e,
  0x24, 0x2e, 0xaa, 0x3d, 0xce, 0x8e, 0x1a, 0xbe, 0xa1, 0xf6, 0x46, 0x3d,
  0x6e, 0x95, 0x0c, 0x3e, 0xad, 0x4f, 0x88, 0x3d, 0x13, 0x86, 0x2d, 0x3b,
  0xf3, 0xdd, 0x96, 0x3d, 0xdd, 0x2d, 0x99, 0xbc, 0x53, 0x12, 0x39, 0x3c,
  0xed, 0xb9, 0xfd, 0xbe, 0x3e, 0xec, 0x48, 0x3e, 0xa8, 0xae, 0x02, 0x3e,
  0x69, 0x4f, 0x96, 0x3c, 0xdf, 0x19, 0x18, 0xbe, 0x8f, 0xdc, 0xbc, 0x3c,
  0xfb, 0xa4, 0x7e, 0xbe, 0x62, 0x62, 0xd7, 0x3c, 0xbb, 0x26, 0xb9, 0x3d,
  0xa7, 0x88, 0x68, 0x3e, 0x57, 0x8c, 0x43, 0xbe, 0xd1, 0xc2, 0x15, 0x3d,
  0xd8, 0x79, 0x2c, 0xbd, 0x27, 0x9b, 0x1c, 0x3e, 0x81, 0x19, 0xce, 0xbd,
  0xdd, 0xeb, 0x71, 0x3e, 0xaf, 0xa6, 0x69, 0x3d, 0x1f, 0xcd, 0x80, 0xbe,
  0x41, 0x5b, 0x4b, 0x3e, 0x1c, 0x92, 0x97, 0xbe, 0x57, 0x36, 0xcb, 0x3d,
  0x98, 0x5a, 0x97, 0x3e, 0xcf, 0xd2, 0x21, 0x3d, 0xf0, 0x3b, 0x3a, 0xbe,
  0x58, 0xff, 0x7c, 0x3e, 0x4a, 0x59, 0x54, 0xbe, 0x94, 0x72, 0x10, 0xbe,
  0xca, 0x4e, 0x88, 0x3e, 0xea, 0x2c, 0x2b, 0x3e, 0x15, 0x5a, 0xb4, 0xbd,
  0xab, 0xcb, 0xdb, 0x3e, 0xa2, 0x86, 0x14, 0x3c, 0x6a, 0xd1, 0x10, 0x3d,
  0x66, 0x97, 0x1a, 0xbd, 0x92, 0x66, 0x85, 0x3e, 0x47, 0xdb, 0x62, 0xbe,
  0xa7, 0xe5, 0x0e, 0xbd, 0x41, 0x61, 0xd4, 0xbc, 0xc2, 0xc9, 0x27, 0x3d,
  0xb4, 0xbe, 0xab, 0x3d, 0x20, 0xb9, 0x93, 0x3e, 0xbf, 0xbe, 0x30, 0x3d,
  0xfb, 0xf1, 0x93, 0xbe, 0x01, 0x40, 0x6a, 0xbe, 0x22, 0x97, 0xa4, 0xbd,
  0x40, 0xe2, 0xb9, 0x3d, 0x7e, 0xa8, 0xa9, 0xbe, 0xc7, 0x51, 0xa0, 0x3e,
  0x8e, 0x53, 0x40, 0xbe, 0xce, 0x81, 0xb4, 0x3c, 0xcc, 0x1a, 0xde, 0x3c,
  0x91, 0xe0, 0xe8, 0x3d, 0x42, 0xca, 0xc7, 0x3d, 0x22, 0x1f, 0xa9, 0x3e,
  0x56, 0xca, 0xba, 0x3e, 0x81, 0x37, 0x85, 0x3c, 0x06, 0xfb, 0x23, 0xbd,
  0x4f, 0x4d, 0x16, 0xbe, 0xd6, 0xe3, 0xe6, 0x3d, 0xb8, 0x24, 0x6b, 0x3d,
  0xdc, 0x2c, 0x4d, 0x3e, 0xb9, 0xdb, 0x71, 0x3e, 0x8e, 0xe4, 0xfd, 0x3d,
  0x1d, 0x25, 0xe8, 0xbd, 0xd9, 0x61, 0x9e, 0xbd, 0xe2, 0x86, 0x38, 0x3e,
  0x28, 0x7d, 0x8d, 0x3e, 0xa7, 0xad, 0x42, 0xbe, 0x04, 0x05, 0x72, 0xbd,
  0x83, 0x8d, 0x40, 0x3e, 0xb2, 0xf3, 0xf8, 0xbe, 0x2b, 0xb3, 0x70, 0x3d,
  0xcc, 0x70, 0x2e, 0x3e, 0x32, 0x7a, 0x97, 0x3e, 0x6d, 0x3a, 0x85, 0xbd,
  0x93, 0x2c, 0xe3, 0x3c, 0x86, 0xff, 0xcf, 0xbc, 0xc4, 0x16, 0x49, 0x3e,
  0xb2, 0x78, 0xd1, 0x3d, 0x7a, 0x9c, 0xd8, 0x3e, 0x99, 0x82, 0x97, 0x3d,
  0x0d, 0x1d, 0x84, 0xbe, 0xb2, 0x78, 0xcf, 0x3d, 0x4f, 0xfa, 0x07, 0x3b,
  0x10, 0xba, 0xc6, 0x3d, 0x39, 0x45, 0x4d, 0x3e, 0xbe, 0xc9, 0x8e, 0x3e,
  0xb8, 0x23, 0x06, 0xbe, 0x9c, 0x94, 0xbd, 0x3d, 0x69, 0xf4, 0xca, 0x3d,
  0xa8, 0x76, 0xcf, 0xbd, 0x45, 0xe1, 0x84, 0x3e, 0x77, 0x24, 0x72, 0x3c,
  0xb3, 0xa3, 0x2e, 0xbd, 0xb0, 0x2f, 0xb4, 0x3e, 0xde, 0xdb, 0xba, 0x3d,
  0xd0, 0xb9, 0x0c, 0xbd, 0x7a, 0x32, 0xcc, 0x3d, 0x74, 0xac, 0xc0, 0x3d,
  0x10, 0x25, 0x1d, 0x3d, 0xbc, 0xd6, 0xee, 0xbd, 0x5b, 0xe5, 0x11, 0x3c,
  0x2f, 0x5b, 0x9d, 0x3e, 0x03, 0xc9, 0x8e, 0x3d, 0xa4, 0x35, 0xa9, 0x3e,
  0x08, 0xc2, 0x27, 0xbd, 0x2c, 0x92, 0xcf, 0xbe, 0xa4, 0x24, 0x24, 0x3e,
  0xec, 0xbb, 0x72, 0xbd, 0x36, 0x78, 0xd8, 0x3d, 0xdf, 0xa8, 0x81, 0xbe,
  0xd6, 0x1a, 0xfc, 0x3e, 0x69, 0x9e, 0x90, 0xbe, 0xfd, 0x57, 0x0d, 0xbd,
  0xd7, 0xed, 0x18, 0xbe, 0x83, 0xbe, 0x03, 0xbe, 0x80, 0x18, 0x0a, 0x3e,
  0x43, 0x49, 0x06, 0xbd, 0xcf, 0x7e, 0x3d, 0x3d, 0x56, 0xad, 0xa5, 0xbe,
  0xcd, 0x1f, 0xa5, 0x3d, 0xb6, 0xba, 0x53, 0x3d, 0x84, 0x62, 0x23, 0x3e,
  0x88, 0xb7, 0xdc, 0x3e, 0x0e, 0x2d, 0x16, 0x3d, 0x84, 0x19, 0x35, 0x3e,
  0x88, 0xe6, 0x72, 0x3e, 0x96, 0x0c, 0xca, 0xbc, 0xe9, 0x41, 0xc7, 0xbe,
  0x76, 0x64, 0x67, 0xbe, 0x74, 0x43, 0xb1, 0x3d, 0x55, 0x15, 0xec, 0xbd,
  0xfb, 0x5b, 0x2a, 0xbe, 0xa0, 0x53, 0x56, 0x3e, 0xf7, 0x64, 0x96, 0xbe,
  0x78, 0x81, 0x97, 0x3e, 0x59, 0xe5, 0x3c, 0x3e, 0x81, 0x28, 0x94, 0x3e,
  0x63, 0x67, 0x69, 0x3e, 0x87, 0x68, 0x42, 0xbe, 0x6b, 0x77, 0xf4, 0x3d,
  0x09, 0xef, 0xdf, 0x3d, 0x62, 0xc7, 0x04, 0x3e, 0xb1, 0xf7, 0x70, 0x3d,
  0x3a, 0xf4, 0xc5, 0xbd, 0x50, 0x50, 0xb0, 0xbe, 0xa3, 0x4d, 0x61, 0x3e,
  0xbc, 0x1e, 0xd9, 0xbd, 0xd9, 0xd5, 0x40, 0x3e, 0x9e, 0xc7, 0x11, 0xbd,
  0xdc, 0xc2, 0x0c, 0x3e, 0x10, 0x9d, 0xce, 0xbd, 0x22, 0xe2, 0x3a, 0x3e,
  0xef, 0xa2, 0xbf, 0xbe, 0x58, 0x72, 0x31, 0xbd, 0xde, 0xec, 0x7b, 0x3e,
  0x00, 0x86, 0x5f, 0xbd, 0x50, 0xc2, 0xbf, 0x3e, 0x04, 0x8a, 0x47, 0x3e,
  0x65, 0x94, 0x15, 0xbd, 0xed, 0xf8, 0x70, 0xbe, 0xbc, 0xf4, 0x4a, 0xbe,
  0x4c, 0xca, 0x4a, 0x3e, 0x86, 0x99, 0x05, 0xbe, 0x24, 0x7c, 0x8f, 0xbe,
  0xbc, 0xf3, 0xa0, 0xbd, 0x24, 0xda, 0xd2, 0xbd, 0x83, 0xcd, 0x69, 0xbd,
  0x15, 0x74, 0x77, 0xbd, 0xa8, 0xf2, 0x91, 0x3d, 0x99, 0x18, 0xc6, 0xbe,
  0xb4, 0xa1, 0x54, 0x3e, 0x86, 0xb9, 0x8c, 0xbe, 0xb8, 0xa0, 0xfe, 0xbd,
  0x62, 0xb7, 0x37, 0x3e, 0x4f, 0x79, 0x91, 0xbe, 0xaa, 0x37, 0x4c, 0x3d,
  0xa9, 0x64, 0xd5, 0x3d, 0xd5, 0x34, 0x83, 0xbd, 0x01, 0x88, 0x74, 0xbe,
  0x77, 0xc3, 0x5d, 0xbe, 0x7d, 0x0e, 0x82, 0xbd, 0xa6, 0xba, 0x4f, 0xbe,
  0xf8, 0xe4, 0x22, 0xbe, 0xca, 0x77, 0xf7, 0xbd, 0x60, 0x80, 0x47, 0xbe,
  0x5e, 0x1a, 0x99, 0xbb, 0xb2, 0x1a, 0x3b, 0xbe, 0x99, 0xcd, 0x00, 0xbe,
  0x2f, 0x47, 0x14, 0xbd, 0xdf, 0xbe, 0x84, 0xbd, 0xd1, 0xd6, 0xd2, 0x3c,
  0x09, 0xab, 0x89, 0x3d, 0xfe, 0xda, 0x47, 0x3d, 0x55, 0xd1, 0x76, 0xbc,
  0xa2, 0xba, 0xa2, 0x3d, 0xab, 0xe8, 0x3a, 0x3e, 0x16, 0x4c, 0xa5, 0xbe,
  0xc2, 0x15, 0x37, 0xbe, 0xb7, 0xd0, 0xb1, 0xbe, 0xef, 0x01, 0x80, 0x3d,
  0xdf, 0x42, 0xbe, 0x3c, 0xa9, 0xc6, 0x13, 0xbe, 0xd5, 0x9f, 0x79, 0xbe,
  0x4f, 0xe1, 0x40, 0xbe, 0xab, 0x2f, 0x0d, 0x3d, 0xe9, 0xd9, 0x8e, 0x3c,
  0x1a, 0x8e, 0x36, 0xbe, 0xa3, 0xc2, 0xe6, 0x3d, 0xf3, 0x08, 0x0b, 0xbe,
  0xa6, 0x60, 0x94, 0xbe, 0xe3, 0xf0, 0x76, 0xbd, 0x98, 0x7c, 0x52, 0x3d,
  0xf1, 0xa2, 0x08, 0xbe, 0x42, 0x89, 0x2c, 0x3d, 0x7b, 0xa1, 0x1e, 0xbe,
  0x85, 0x71, 0x7b, 0xbe, 0x02, 0x46, 0xe3, 0x3d, 0x63, 0xf9, 0xda, 0x3c,
  0x3e, 0x03, 0xfa, 0xbb, 0x67, 0x09, 0x43, 0xbd, 0x6c, 0xa0, 0x5f, 0xbd,
  0x07, 0x6d, 0x8e, 0xbe, 0x78, 0x71, 0x40, 0xbe, 0x00, 0xaf, 0x11, 0x3d,
  0xb9, 0xfe, 0xaa, 0x3d, 0x39, 0xbf, 0xa3, 0xbd, 0xa8, 0x6e, 0x20, 0xbd,
  0x81, 0x4a, 0x75, 0xbe, 0xef, 0xa4, 0x01, 0x3d, 0xa0, 0x67, 0x8c, 0xbd,
  0x1c, 0xdc, 0x9c, 0xbd, 0xf0, 0x83, 0x5c, 0xbe, 0x7b, 0x22, 0x14, 0x3e,
  0xb1, 0x57, 0x77, 0x3d, 0x98, 0xe6, 0xbd, 0xbd, 0xb9, 0x5a, 0x1f, 0x3e,
  0xfb, 0xc7, 0x39, 0xbd, 0x49, 0x02, 0x88, 0xbd, 0x84, 0x37, 0xb2, 0xbe,
  0x38, 0xfd, 0x12, 0x3e, 0xf6, 0xc8, 0xcc, 0xbe, 0x24, 0x46, 0xaa, 0xbd,
  0x32, 0xcd, 0x5a, 0x3e, 0x13, 0x39, 0x9d, 0x3e, 0x8e, 0x60, 0x1e, 0xbf,
  0x03, 0x03, 0x2b, 0xbf, 0xac, 0x25, 0x2d, 0xbe, 0x68, 0x54, 0x94, 0x3e,
  0x44, 0x15, 0x77, 0xbe, 0x29, 0x4f, 0xa3, 0xbe, 0xf3, 0x75, 0x0a, 0xbe,
  0xa2, 0xb3, 0xb9, 0xbe, 0xed, 0xb0, 0x05, 0xbe, 0x68, 0x45, 0xe4, 0xbd,
  0x61, 0x53, 0x1e, 0xbe, 0x62, 0x61, 0x9a, 0x3e, 0x11, 0xd9, 0x29, 0xbe,
  0x6f, 0xda, 0x07, 0x3e, 0xd6, 0x97, 0x00, 0xbe, 0x99, 0xa5, 0x5a, 0xbe,
  0xb9, 0xcc, 0x00, 0xbf, 0xb1, 0x00, 0x06, 0xbe, 0x58, 0x70, 0x36, 0xbf,
  0x33, 0xfc, 0x20, 0x3c, 0xb7, 0x6b, 0x4d, 0xbe, 0xfc, 0xcc, 0x14, 0xbf,
  0x68, 0x75, 0x63, 0x3e, 0x62, 0x6a, 0xb5, 0x3d, 0x75, 0x90, 0x3c, 0xbe,
  0x34, 0x57, 0x73, 0xbd, 0x78, 0x5d, 0x35, 0xbe, 0x68, 0x94, 0x01, 0xbf,
  0x80, 0x7d, 0x87, 0xbd, 0x57, 0x63, 0x02, 0xbf, 0x2f, 0x10, 0x75, 0x3e,
  0x27, 0xaf, 0xe2, 0x3d, 0x65, 0x80, 0xf3, 0xbe, 0x4f, 0x1d, 0x13, 0x3e,
  0x1d, 0xed, 0xd6, 0x3d, 0x02, 0x27, 0x1c, 0x3d, 0x86, 0x1e, 0xf4, 0xbd,
  0x05, 0xe4, 0x11, 0xbe, 0x1a, 0xfb, 0x22, 0xbc, 0xeb, 0x8c, 0x81, 0x3c,
  0xa7, 0x3c, 0x33, 0xbe, 0xff, 0x23, 0x0f, 0xbe, 0xa9, 0x1e, 0x8c, 0x3e,
  0xa7, 0x34, 0xb9, 0xbe, 0x67, 0x8b, 0x6f, 0x3e, 0xfd, 0x2f, 0xd4, 0xbe,
  0x8e, 0x1e, 0xf3, 0xbd, 0xe8, 0xa0, 0xa5, 0xbe, 0xe0, 0xd4, 0xf0, 0x3e,
  0xcf, 0x73, 0xc9, 0x3d, 0x03, 0xc1, 0xb8, 0xbe, 0x71, 0x7f, 0xff, 0x3d,
  0xd2, 0x90, 0xed, 0x3d, 0x53, 0xc2, 0x08, 0x3f, 0xe3, 0x2a, 0x3d, 0x3d,
  0x0a, 0x8d, 0xbb, 0xbe, 0xd3, 0x00, 0xf9, 0x3d, 0x4b, 0x7e, 0xf2, 0xbc,
  0x4a, 0x8b, 0x6c, 0x3e, 0x34, 0x4d, 0xba, 0xbe, 0x1d, 0x91, 0xe2, 0x3d,
  0xb6, 0xe0, 0x9d, 0x3d, 0xdb, 0x45, 0xce, 0xbd, 0x4f, 0x6d, 0xe6, 0x3d,
  0x60, 0x74, 0xa9, 0x3d, 0xfb, 0x53, 0x6f, 0x3e, 0x50, 0xb2, 0x08, 0x3e,
  0xad, 0x35, 0x1f, 0x3d, 0xf6, 0x5f, 0xa4, 0xbe, 0xce, 0xa1, 0x6b, 0x3e,
  0xbd, 0xc2, 0x38, 0x3e, 0x59, 0xf2, 0x6d, 0x3e, 0x9d, 0x57, 0xa2, 0xbd,
  0x3a, 0x9b, 0x07, 0x3e, 0x7a, 0xa5, 0xd8, 0xbd, 0xd3, 0xb8, 0xc4, 0x3c,
  0xfc, 0x90, 0x65, 0x3d, 0x8a, 0xf5, 0x2b, 0x3e, 0x0e, 0x2b, 0x5b, 0xbe,
  0x7a, 0xe4, 0xde, 0xbd, 0x37, 0x18, 0x0b, 0xbe, 0xdb, 0xa4, 0x4b, 0xbe,
  0x89, 0xe6, 0xd0, 0xbc, 0x98, 0xae, 0x24, 0x3e, 0x95, 0x75, 0x9e, 0x3c,
  0xd7, 0x02, 0xbc, 0x3c, 0xe7, 0x45, 0x97, 0xbe, 0x29, 0x1c, 0xe4, 0x3d,
  0xd4, 0xb0, 0x10, 0xbe, 0xd3, 0xf7, 0xdf, 0xbd, 0x4a, 0x25, 0xf8, 0x3e,
  0xe6, 0xc5, 0x0e, 0xbe, 0x10, 0xc6, 0xab, 0xbd, 0x84, 0xc9, 0x65, 0x3d,
  0x6d, 0x27, 0x66, 0xbe, 0xd5, 0x5e, 0xfb, 0xbd, 0xd5, 0x2b, 0xf2, 0xbc,
  0x51, 0xa9, 0x27, 0x3e, 0xfc, 0xd0, 0x87, 0xbe, 0x50, 0x64, 0x19, 0xbe,
  0x87, 0xb8, 0x16, 0x3e, 0x67, 0x39, 0xfe, 0xbc, 0x4a, 0x0f, 0x2e, 0x3e,
  0x37, 0x22, 0xf6, 0xbd, 0xf6, 0x7b, 0x07, 0x3e, 0x9e, 0xc2, 0xbe, 0x3c,
  0xe1, 0xca, 0x87, 0x3d, 0xe3, 0x78, 0x34, 0x3e, 0x68, 0x6a, 0x7d, 0xbd,
  0xfd, 0xa0, 0x7c, 0xbe, 0x00, 0x59, 0xe0, 0xbe, 0x2f, 0x03, 0x1a, 0x3e,
  0x5c, 0x13, 0xc7, 0xbe, 0xd2, 0x05, 0xf6, 0xbd, 0xb6, 0x7f, 0x02, 0xbe,
  0xb6, 0x98, 0x05, 0x3e, 0xe2, 0x64, 0x17, 0x3e, 0x21, 0x79, 0xa2, 0xbe,
  0xc1, 0x60, 0x09, 0xbc, 0x0b, 0x5d, 0x05, 0xbe, 0xfa, 0x2a, 0x03, 0xbd,
  0xa8, 0x21, 0xb4, 0xbd, 0xc4, 0xd3, 0x4e, 0x3e, 0x44, 0xa6, 0xc2, 0xbd,
  0xb5, 0xca, 0xe1, 0xbd, 0x86, 0xfb, 0x69, 0x3d, 0x49, 0x48, 0x4f, 0x3d,
  0xed, 0x00, 0xed, 0xbd, 0x5a, 0x4c, 0xb2, 0xbd, 0x17, 0xb5, 0xae, 0xbd,
  0xeb, 0x7e, 0x9d, 0xbd, 0xb0, 0x5b, 0x71, 0xbe, 0x75, 0x68, 0xff, 0x3b,
  0x37, 0x92, 0x1c, 0x3d, 0x6b, 0x35, 0xe3, 0xbd, 0xcc, 0xad, 0x47, 0xbe,
  0x96, 0x13, 0x34, 0xbe, 0xed, 0xd3, 0x84, 0xbd, 0xda, 0xef, 0xd0, 0x3d,
  0x00, 0xdc, 0xc9, 0xbe, 0x0b, 0x7d, 0x29, 0xbe, 0x4c, 0xf2, 0x5a, 0x3e,
  0x4a, 0x1d, 0x21, 0xbd, 0xee, 0xb2, 0x5c, 0xbd, 0x62, 0x65, 0x64, 0x3e,
  0x29, 0xe5, 0x16, 0x3e, 0x21, 0x85, 0x5b, 0xbe, 0xc1, 0x66, 0x13, 0xbe,
  0x92, 0xe4, 0x19, 0x3c, 0x7e, 0x1d, 0x12, 0x3e, 0x84, 0x3f, 0x89, 0xbe,
  0x09, 0xd4, 0x2e, 0x3e, 0x9e, 0x27, 0xa4, 0x3d, 0x5c, 0xb9, 0xa4, 0x3d,
  0x40, 0x43, 0x35, 0x3e, 0x7c, 0xf8, 0x05, 0x3e, 0x15, 0xcd, 0x76, 0xbe,
  0xe3, 0x58, 0xe9, 0xbb, 0x18, 0x6b, 0xab, 0xbe, 0x45, 0xf3, 0x64, 0x3d,
  0xca, 0xa3, 0xff, 0x3d, 0x73, 0x09, 0x16, 0x3e, 0x7a, 0xa5, 0x8c, 0xbe,
  0x62, 0x98, 0x29, 0xbe, 0x7d, 0xcc, 0x59, 0xbe, 0x90, 0xc5, 0x0b, 0x3e,
  0x69, 0x8d, 0xee, 0xbd, 0xb6, 0xf1, 0x27, 0xbe, 0x5f, 0x5e, 0x70, 0x3e,
  0x02, 0xd7, 0x30, 0xbe, 0x53, 0xbd, 0x93, 0x3d, 0x66, 0x7e, 0x96, 0xbd,
  0x84, 0x86, 0x06, 0x3e, 0x7a, 0x45, 0x34, 0xbe, 0xc3, 0x53, 0x42, 0xbe,
  0x0f, 0x68, 0x34, 0x3e, 0xbb, 0xa9, 0x5b, 0xbd, 0xb7, 0xd1, 0xeb, 0x3c,
  0x69, 0xa2, 0x3e, 0x3e, 0xd3, 0x7d, 0xf8, 0x3d, 0x1a, 0x66, 0x90, 0x3d,
  0x5e, 0xe1, 0x1d, 0xbe, 0x4d, 0x5d, 0x6b, 0x3c, 0xbd, 0x31, 0xc6, 0xbe,
  0x5e, 0x75, 0x94, 0xbe, 0x1e, 0x1b, 0x6c, 0xbe, 0x5e, 0x3b, 0xda, 0xbe,
  0x7e, 0x4b, 0x2a, 0xbe, 0xaf, 0x1b, 0xaa, 0xbe, 0xf8, 0x90, 0x3b, 0xbe,
  0x80, 0x68, 0x8a, 0xbe, 0xe8, 0x7f, 0x6d, 0xbd, 0x6f, 0xa2, 0x7d, 0x3e,
  0xca, 0x81, 0x7a, 0x3e, 0xdf, 0xea, 0x4d, 0x3d, 0xb1, 0x30, 0x34, 0xbe,
  0xd0, 0x1d, 0x8c, 0xbe, 0xfa, 0x7d, 0x8d, 0x3d, 0x13, 0x8a, 0x77, 0xbf,
  0x47, 0x92, 0x36, 0xbf, 0xa2, 0x80, 0x3e, 0xbd, 0x0b, 0x7c, 0xd3, 0xbe,
  0x71, 0x51, 0x75, 0x3e, 0x2c, 0x3b, 0xd1, 0xbd, 0xf8, 0x4f, 0xd6, 0xbe,
  0x60, 0x33, 0x82, 0xbe, 0x65, 0xac, 0xbb, 0xbe, 0x51, 0xdd, 0xda, 0xbc,
  0x12, 0x6e, 0x29, 0x3d, 0x1c, 0x61, 0x6f, 0xbe, 0xe6, 0xf2, 0x8e, 0x3e,
  0x65, 0xbe, 0x04, 0x3e, 0xbd, 0xe0, 0x8a, 0xbe, 0x6c, 0x2f, 0xc3, 0xbd,
  0x86, 0x15, 0x09, 0xbd, 0xc9, 0x5d, 0xb3, 0xbb, 0xfe, 0xef, 0xb2, 0xbd,
  0x04, 0x01, 0x7a, 0xbe, 0xa3, 0x8c, 0x16, 0xbf, 0xcf, 0xd0, 0xb6, 0xbe,
  0xf7, 0xd9, 0x3e, 0xbc, 0xdd, 0xbb, 0xc8, 0xbe, 0xde, 0x60, 0x94, 0xbe,
  0xda, 0x68, 0x86, 0xbc, 0x00, 0xa1, 0x46, 0x3e, 0xaa, 0xa7, 0xca, 0xbd,
  0x13, 0x52, 0x0d, 0xbf, 0x16, 0xbe, 0x4f, 0x3d, 0xe1, 0x42, 0x65, 0xbe,
  0xb2, 0x4e, 0xfb, 0xbd, 0xfc, 0xc7, 0x93, 0x3e, 0x86, 0xa3, 0x84, 0xbd,
  0xdf, 0xae, 0xf0, 0xbe, 0x29, 0x80, 0x40, 0x3e, 0xa4, 0x26, 0x09, 0x3e,
  0x41, 0x91, 0x9f, 0xbe, 0x32, 0xfa, 0xb6, 0xbe, 0xee, 0x78, 0xd8, 0xbe,
  0xbb, 0x64, 0x90, 0xbe, 0x7e, 0xd9, 0x50, 0xbd, 0x19, 0x17, 0x53, 0xbe,
  0x95, 0x58, 0xfe, 0xbc, 0x1a, 0x27, 0x7e, 0xbe, 0xb2, 0xcc, 0x95, 0xbe,
  0x76, 0x70, 0x20, 0x3e, 0xe7, 0xac, 0xa1, 0x3d, 0x6b, 0x53, 0xa8, 0xbe,
  0x9f, 0xd3, 0xc3, 0xbd, 0x26, 0x13, 0xe0, 0xbd, 0xbc, 0xe0, 0x3e, 0x3e,
  0x1a, 0x83, 0x2a, 0x3e, 0x2a, 0x3d, 0x7f, 0xbb, 0xbe, 0x77, 0xfe, 0x3d,
  0x43, 0xcf, 0x88, 0xbe, 0x68, 0x75, 0x9d, 0xbd, 0x52, 0xb1, 0x58, 0x3e,
  0x0f, 0x9e, 0x17, 0xbe, 0x65, 0x2e, 0x95, 0xbb, 0x7b, 0x85, 0xdd, 0x3d,
  0xe5, 0x10, 0xac, 0xbe, 0x13, 0x8c, 0x07, 0x3e, 0xd3, 0xaf, 0xe8, 0x3d,
  0x63, 0x66, 0xe0, 0xbd, 0x72, 0x69, 0x0d, 0x3e, 0x87, 0x31, 0x02, 0xbe,
  0x41, 0x9c, 0x88, 0xbe, 0x04, 0xf6, 0x24, 0xbd, 0xd0, 0xa1, 0x01, 0xbf,
  0xf0, 0x19, 0xb1, 0x3d, 0x63, 0x28, 0x2d, 0x3e, 0x42, 0x2f, 0x39, 0xbe,
  0xd2, 0xb1, 0xbb, 0xbd, 0x05, 0xd9, 0x01, 0x3e, 0x20, 0xfa, 0xf8, 0x3d,
  0x2a, 0x5c, 0x60, 0x3e, 0x1a, 0xa7, 0x61, 0xbd, 0x7f, 0xa6, 0x99, 0xbd,
  0xef, 0x07, 0x90, 0x3e, 0x8c, 0x68, 0x2d, 0xbe, 0x56, 0xd6, 0x8d, 0x3e,
  0x02, 0xea, 0x99, 0xbc, 0x99, 0xc7, 0x7c, 0xbd, 0x60, 0x84, 0xd8, 0x3d,
  0x50, 0xea, 0x95, 0x3c, 0x27, 0xac, 0xb4, 0xbd, 0x54, 0x6e, 0xb7, 0xbd,
  0x23, 0xed, 0x42, 0xbe, 0x40, 0x5e, 0x6a, 0x3e, 0x20, 0x2e, 0x4a, 0xbe,
  0xbc, 0xfc, 0x9c, 0x3d, 0x7a, 0x25, 0x74, 0x3d, 0xb4, 0x21, 0x37, 0x3e,
  0xee, 0x99, 0x6e, 0x3e, 0x89, 0xb4, 0x9d, 0xbd, 0x37, 0x42, 0xa1, 0x3d,
  0x32, 0xe7, 0x15, 0xbe, 0xd2, 0x55, 0x32, 0x3c, 0x75, 0xf8, 0x38, 0xbe,
  0x8a, 0x16, 0x96, 0xbc, 0x81, 0x18, 0xa1, 0xbe, 0x1c, 0x65, 0x01, 0x3d,
  0x55, 0x78, 0x00, 0x3e, 0x44, 0x44, 0x61, 0xbc, 0x70, 0x8d, 0xb2, 0x3d,
  0xdc, 0x25, 0xbb, 0xbe, 0xbb, 0x4c, 0x26, 0x3d, 0x8f, 0x8e, 0xd9, 0xbc,
  0x13, 0x05, 0xfb, 0x3c, 0xdb, 0x2f, 0xd8, 0xbe, 0x52, 0x13, 0x24, 0xbf,
  0xa6, 0xdc, 0xc3, 0x3d, 0xef, 0x92, 0x7d, 0xbd, 0x99, 0x3a, 0xaf, 0xbe,
  0x3a, 0xb2, 0x47, 0xbe, 0x12, 0xa7, 0xa4, 0x3e, 0x2f, 0x2c, 0xa1, 0x3b,
  0xea, 0x7c, 0x98, 0xbe, 0x50, 0x37, 0xe6, 0x3c, 0x02, 0x72, 0x32, 0xbd,
  0x63, 0xf6, 0x0b, 0xbe, 0x34, 0xad, 0x69, 0xbd, 0x31, 0xa6, 0x89, 0xbd,
  0xff, 0xfb, 0x5d, 0xbb, 0x31, 0x94, 0x9b, 0xbb, 0x93, 0xd4, 0xdf, 0xbe,
  0xaa, 0x5c, 0x61, 0x3c, 0xcd, 0xd7, 0x60, 0x3e, 0x1b, 0xd5, 0x9e, 0x3e,
  0x9f, 0x3f, 0x36, 0x3e, 0x53, 0xce, 0x18, 0x3d, 0x81, 0x85, 0x29, 0x3e,
  0xf3, 0x1c, 0x29, 0xbe, 0x9c, 0x42, 0xdb, 0xbe, 0x1a, 0x64, 0x14, 0xbd,
  0x1a, 0x6c, 0x3e, 0x3c, 0x8c, 0x9d, 0xba, 0xbd, 0x04, 0x57, 0xdb, 0xbd,
  0x55, 0x62, 0xf4, 0xbd, 0x95, 0xaf, 0x36, 0x3e, 0x6e, 0x27, 0x59, 0xbe,
  0x3c, 0xc2, 0xcf, 0x3d, 0x68, 0xfa, 0x36, 0xbe, 0x09, 0xdb, 0x19, 0xbe,
  0x6d, 0x35, 0x5f, 0xbd, 0xc9, 0x9e, 0x72, 0x3d, 0x35, 0xbc, 0x9a, 0xbc,
  0xe3, 0xef, 0x52, 0x3e, 0x15, 0x3e, 0xa2, 0xbe, 0x04, 0xe0, 0x00, 0xbb,
  0xc7, 0xa6, 0x08, 0x3e, 0x23, 0xd9, 0x63, 0xbe, 0xb7, 0xaa, 0x98, 0xbd,
  0x10, 0xbc, 0x52, 0x3e, 0x3e, 0x12, 0x61, 0x3b, 0x61, 0xfc, 0x40, 0xbd,
  0x39, 0xf4, 0x1d, 0xbe, 0x27, 0x4f, 0xbe, 0x3d, 0xbd, 0xd7, 0x15, 0x3d,
  0x0b, 0x4f, 0xf7, 0xbc, 0x44, 0x39, 0x0a, 0xbe, 0x19, 0x8f, 0x55, 0xbe,
  0xce, 0xae, 0x8d, 0x3c, 0x4e, 0xd6, 0xd5, 0xbe, 0x60, 0x38, 0xf2, 0xbd,
  0xeb, 0xb1, 0x22, 0xbe, 0x19, 0xb7, 0xee, 0xbd, 0x67, 0xf7, 0x96, 0xbe,
  0x2a, 0x90, 0x69, 0x3d, 0xf1, 0x7d, 0xd4, 0xbe, 0x42, 0xa4, 0xa1, 0xbc,
  0x5c, 0x8a, 0xa4, 0x3e, 0x5e, 0x38, 0x7e, 0x3d, 0xd8, 0x5b, 0xa8, 0xbe,
  0xe6, 0xd1, 0x28, 0xbe, 0xce, 0x2e, 0x32, 0x3d, 0x23, 0x11, 0xa7, 0xbe,
  0x6a, 0x63, 0x12, 0xbe, 0xdc, 0x33, 0x52, 0x3d, 0xa3, 0xa1, 0xe4, 0xbe,
  0x9a, 0x2d, 0x3c, 0x3d, 0xea, 0x57, 0x73, 0x3e, 0xf0, 0x4e, 0x59, 0x3e,
  0x88, 0x7b, 0x05, 0xbe, 0xac, 0x56, 0xae, 0x3d, 0x09, 0x2a, 0x71, 0xbd,
  0x83, 0x7d, 0xc1, 0xbe, 0x33, 0x28, 0x06, 0x3e, 0xf8, 0x0b, 0x65, 0x3e,
  0x02, 0x37, 0x90, 0x3d, 0x7f, 0x29, 0x11, 0xbf, 0x10, 0x16, 0xb9, 0xbc,
  0x7a, 0xa3, 0x69, 0xbe, 0x56, 0xa3, 0x64, 0xbe, 0xb0, 0xf7, 0xa7, 0xbe,
  0x25, 0xc6, 0x7b, 0xbd, 0x78, 0x64, 0xb0, 0xbd, 0x74, 0x94, 0xdc, 0xbe,
  0x1f, 0xd3, 0x75, 0xbe, 0x91, 0x0c, 0x5c, 0x3e, 0xc2, 0x95, 0xc2, 0xbd,
  0x0b, 0x34, 0xe5, 0xbe, 0x23, 0x39, 0x10, 0x3e, 0x7a, 0x64, 0xbd, 0xbe,
  0x4a, 0x5b, 0x5b, 0x3e, 0x3b, 0x03, 0x0a, 0xbf, 0xa7, 0x8b, 0x8b, 0xbe,
  0x35, 0x9b, 0x59, 0x3d, 0xb1, 0x6b, 0x6e, 0x3e, 0x39, 0xd0, 0x0e, 0x3e,
  0x50, 0x0a, 0x06, 0xbf, 0xaf, 0x00, 0x43, 0xbe, 0x9f, 0xe7, 0xd9, 0xbd,
  0xf9, 0x21, 0x7c, 0x3e, 0xbf, 0xd2, 0xd9, 0xbd, 0xf2, 0x69, 0x95, 0x3e,
  0x55, 0x88, 0xcf, 0xbd, 0x48, 0x1d, 0x02, 0xbe, 0xd4, 0xd8, 0x80, 0xbd,
  0x18, 0x48, 0x9c, 0xbd, 0xe2, 0x01, 0x64, 0x3e, 0x19, 0x91, 0xc2, 0xbe,
  0xac, 0x67, 0x39, 0x3e, 0xb9, 0xfe, 0x28, 0xbc, 0x35, 0x24, 0xa6, 0x3e,
  0x7e, 0xe7, 0xbb, 0xbd, 0xae, 0x50, 0x8a, 0xbe, 0x29, 0x6c, 0xd9, 0x3e,
  0x46, 0x98, 0x8e, 0x3e, 0xbb, 0x67, 0xf9, 0x3d, 0x4c, 0x95, 0x5d, 0xbe,
  0xe2, 0xb7, 0xa7, 0xbd, 0x58, 0x97, 0x76, 0x3e, 0x85, 0xf6, 0x47, 0xbe,
  0xb8, 0x5f, 0xff, 0x3d, 0x29, 0x19, 0xc9, 0xbd, 0xb1, 0xc6, 0xcd, 0xbe,
  0xd5, 0x0d, 0xfd, 0x3d, 0xed, 0x4e, 0x45, 0xbe, 0x8d, 0x4c, 0x0e, 0x3e,
  0xbf, 0xa9, 0x91, 0x3e, 0x0b, 0xf9, 0x10, 0x3e, 0x8d, 0xea, 0x70, 0x3d,
  0x5b, 0x6f, 0x4c, 0xbd, 0x7a, 0x38, 0x69, 0x3d, 0xec, 0xa7, 0xa6, 0xbe,
  0x98, 0x90, 0xfa, 0xbd, 0xdf, 0xc7, 0x7f, 0x3d, 0xd1, 0x65, 0x6f, 0x3e,
  0xc2, 0x33, 0xcd, 0xbe, 0xdf, 0x7a, 0xda, 0xbe, 0xbf, 0x37, 0x74, 0xbd,
  0xef, 0x54, 0x3d, 0x3e, 0xab, 0x81, 0xab, 0x3e, 0xc4, 0x6b, 0xc8, 0xbe,
  0x2b, 0xaa, 0x3d, 0x3e, 0x5e, 0xc0, 0x82, 0xbe, 0x1e, 0xbc, 0x1c, 0xbe,
  0x40, 0x90, 0xc7, 0xbd, 0x6e, 0x96, 0xb4, 0x3c, 0x89, 0x51, 0xb4, 0x3e,
  0x50, 0xd8, 0xc1, 0xbe, 0x94, 0x40, 0x67, 0xbc, 0x47, 0x00, 0x90, 0xbd,
  0x8e, 0x77, 0x61, 0x3e, 0x45, 0x55, 0xe3, 0xbe, 0x6f, 0xe2, 0x80, 0xbc,
  0x29, 0x84, 0x27, 0xbf, 0x20, 0x88, 0x2d, 0xbd, 0x08, 0xd8, 0x03, 0x3e,
  0x14, 0x4d, 0x2a, 0xbf, 0x2c, 0x17, 0x31, 0xbe, 0x59, 0xc5, 0x2a, 0x3d,
  0x36, 0x6b, 0x47, 0x3c, 0xe0, 0xdd, 0x2b, 0xbe, 0x28, 0x37, 0x77, 0x3d,
  0x70, 0xc9, 0x3e, 0xbf, 0x72, 0xf0, 0x44, 0xbe, 0xdc, 0x5c, 0xac, 0xbd,
  0x14, 0x13, 0x04, 0x3e, 0x80, 0x44, 0xa7, 0x3e, 0xd6, 0xc9, 0xd3, 0xbe,
  0x6a, 0x56, 0x2d, 0x3e, 0x1b, 0x1e, 0xe7, 0xbd, 0x32, 0x24, 0x45, 0x3c,
  0xdd, 0xa4, 0xcb, 0x3d, 0x19, 0xa1, 0xbf, 0x3d, 0x62, 0x58, 0xc7, 0x3c,
  0x7f, 0x80, 0x4c, 0x3e, 0xdf, 0x08, 0xee, 0xbd, 0x14, 0xe3, 0x0c, 0xbf,
  0x75, 0x1f, 0x8c, 0xbc, 0x51, 0x2d, 0xde, 0x3c, 0x7a, 0xc9, 0xa7, 0x3e,
  0x89, 0x7a, 0x14, 0xbf, 0xed, 0x20, 0x18, 0xbd, 0x4c, 0xfa, 0x37, 0x3d,
  0xf7, 0x60, 0xf1, 0x3e, 0xba, 0xf4, 0xf6, 0xbd, 0x8c, 0xd5, 0x97, 0xbe,
  0xfe, 0x88, 0x19, 0x3e, 0x1d, 0x01, 0x4c, 0x3e, 0x64, 0x33, 0xb9, 0x3e,
  0xaf, 0x50, 0x64, 0x3d, 0xab, 0x1c, 0x92, 0xbe, 0xbf, 0xbc, 0xcc, 0xbe,
  0x4f, 0xbd, 0xfd, 0xbd, 0x7e, 0xbe, 0x4e, 0xbd, 0x6d, 0xe4, 0x21, 0xbe,
  0xb5, 0x6b, 0x1b, 0xbe, 0x92, 0xfb, 0x0b, 0xbf, 0xde, 0x05, 0xb8, 0xbd,
  0x68, 0x5f, 0xb6, 0x3c, 0x45, 0x23, 0x21, 0xbd, 0xa2, 0x7a, 0x23, 0xbc,
  0x03, 0x9e, 0x71, 0x3a, 0x34, 0x8a, 0x1e, 0xbe, 0x54, 0x84, 0x51, 0xbe,
  0xbd, 0x68, 0x9b, 0xbe, 0x76, 0x70, 0xd8, 0x3e, 0x01, 0xe5, 0x78, 0x3e,
  0x36, 0xc5, 0x89, 0x3e, 0x31, 0x51, 0x96, 0xbd, 0xbb, 0xa9, 0x98, 0xbe,
  0x18, 0xbe, 0xa9, 0xbe, 0x50, 0x32, 0xd7, 0xbe, 0x1c, 0x9e, 0xf1, 0xbc,
  0x9f, 0x53, 0xa2, 0xbe, 0xb5, 0x2f, 0x14, 0x3e, 0xa0, 0x24, 0x69, 0x3c,
  0x4b, 0x1e, 0x1b, 0xbe, 0x62, 0xa6, 0x3e, 0xbe, 0x5d, 0xf0, 0x0f, 0xbe,
  0x71, 0x28, 0xab, 0xbc, 0x80, 0x7f, 0xb3, 0xbe, 0x35, 0x61, 0xce, 0xbe,
  0xc4, 0x27, 0x55, 0x3e, 0xb7, 0x8e, 0xd4, 0xbc, 0x4c, 0x9f, 0xeb, 0xbd,
  0xd3, 0x57, 0x1c, 0x3e, 0xe2, 0xa5, 0xb9, 0xbe, 0x63, 0x54, 0xc4, 0xbc,
  0x51, 0xd4, 0x58, 0x3e, 0xce, 0x60, 0x19, 0xbe, 0xfa, 0xd3, 0xb5, 0xbd,
  0x11, 0x44, 0x0b, 0x3e, 0x74, 0x09, 0x78, 0xbe, 0xc6, 0x89, 0x62, 0xbe,
  0x83, 0x97, 0x03, 0x3d, 0x79, 0xdd, 0x31, 0x3e, 0x1f, 0xda, 0x5a, 0x3d,
  0x90, 0xec, 0xd3, 0x3c, 0x7f, 0xfc, 0x91, 0x3d, 0x13, 0xd4, 0x8d, 0xbd,
  0x31, 0xcd, 0xe3, 0xbd, 0x6d, 0xff, 0xd9, 0xbe, 0xd8, 0x48, 0x7a, 0xbe,
  0x37, 0x2d, 0x18, 0xbe, 0x46, 0x3a, 0x57, 0xbe, 0x8c, 0x77, 0x70, 0xbe,
  0xe3, 0x2c, 0x9e, 0x3d, 0x64, 0x13, 0xe2, 0xbe, 0x8d, 0x6b, 0xad, 0xbd,
  0x57, 0x09, 0x33, 0x3d, 0x27, 0x7c, 0x0b, 0x3e, 0x43, 0xdf, 0x2e, 0xbe,
  0xf8, 0xf7, 0xf0, 0xbe, 0xc1, 0xc8, 0x8a, 0x3d, 0x77, 0xbb, 0x5b, 0x3c,
  0x10, 0xbe, 0x11, 0xbe, 0xea, 0x1e, 0x96, 0xbd, 0x17, 0x6e, 0x9e, 0x3e,
  0x36, 0xc8, 0x0b, 0x3e, 0xc9, 0x19, 0x6b, 0xbb, 0x4f, 0xf2, 0x34, 0x3d,
  0x4e, 0xc3, 0x28, 0xbd, 0x86, 0xa2, 0x3a, 0x3e, 0xde, 0xd1, 0xca, 0x3e,
  0xd4, 0x2c, 0x0c, 0x3e, 0x08, 0x55, 0xa8, 0xbd, 0xd4, 0x4a, 0xdf, 0xbc,
  0x57, 0x92, 0xf2, 0xbd, 0x82, 0x65, 0x8d, 0x3e, 0xb2, 0xca, 0xb0, 0x3d,
  0x13, 0xa3, 0x7c, 0x3e, 0x64, 0x7e, 0xa7, 0x3e, 0x74, 0x2e, 0xbe, 0x3c,
  0x54, 0x9f, 0xa7, 0xbd, 0x41, 0x58, 0xb0, 0xbe, 0xfa, 0xfd, 0x87, 0xbc,
  0x10, 0x48, 0xd1, 0x3d, 0x72, 0x20, 0x89, 0xbd, 0x4d, 0xd8, 0x15, 0xbd,
  0xee, 0x95, 0x65, 0x3e, 0x65, 0x21, 0x8f, 0xbe, 0xa8, 0xbd, 0x14, 0x3e,
  0x51, 0xd5, 0x4d, 0x3e, 0xc8, 0xd8, 0xf0, 0x3c, 0xef, 0x72, 0x10, 0x3e,
  0xf7, 0x81, 0x9d, 0x3d, 0xd5, 0xcf, 0x6e, 0x3e, 0xe6, 0xa7, 0xc4, 0x3c,
  0x2d, 0x8f, 0xe2, 0x3b, 0x8b, 0x25, 0x80, 0x3e, 0x9f, 0xff, 0x44, 0xbc,
  0x12, 0xc1, 0x7e, 0xbe, 0xb6, 0x2a, 0x18, 0xbd, 0x25, 0x8d, 0x17, 0x3d,
  0x7f, 0x1a, 0x6e, 0x3e, 0xe8, 0xff, 0xad, 0x3e, 0x8d, 0xd3, 0x05, 0xbe,
  0x46, 0x6d, 0x7c, 0xbe, 0x7e, 0xee, 0x39, 0x3e, 0x57, 0x6e, 0x47, 0xbe,
  0xe3, 0x67, 0xf8, 0x3d, 0xac, 0x19, 0x83, 0x3d, 0xd2, 0x91, 0x53, 0x3e,
  0x61, 0xba, 0x5b, 0x3e, 0x3f, 0xea, 0x92, 0x3e, 0x8c, 0xac, 0x8a, 0x3e,
  0x6b, 0xd3, 0x00, 0x3d, 0xa4, 0x75, 0xbc, 0x3d, 0x84, 0x6d, 0xc6, 0xbd,
  0x89, 0x00, 0x03, 0xbe, 0xbd, 0x50, 0x2f, 0xbe, 0xbd, 0xfa, 0xd5, 0xbe,
  0xc3, 0x0e, 0xc7, 0x3d, 0xf9, 0x21, 0x03, 0x3d, 0xf4, 0x17, 0x53, 0x3d,
  0x97, 0x35, 0x69, 0xbe, 0x1d, 0x7f, 0xb6, 0xbe, 0x76, 0xa5, 0x32, 0xbe,
  0xa8, 0xa0, 0x23, 0xbc, 0x94, 0xa6, 0x18, 0xbe, 0xb5, 0x62, 0xb4, 0xbd,
  0x79, 0xa3, 0x49, 0x3e, 0xb0, 0x1e, 0x25, 0xbe, 0xeb, 0x7d, 0xb4, 0x3d,
  0xfb, 0xec, 0x93, 0xbd, 0x9b, 0xf7, 0x0a, 0x3e, 0x26, 0x17, 0x98, 0x3c,
  0xc4, 0xfe, 0x75, 0x3e, 0xf9, 0x46, 0xb2, 0x3d, 0x5a, 0xbd, 0x3a, 0xbd,
  0xce, 0xc1, 0x71, 0xbe, 0xfe, 0x87, 0x87, 0xbe, 0x73, 0xa0, 0xc2, 0x3e,
  0xc2, 0xe2, 0x76, 0x3e, 0xa0, 0x0b, 0xd7, 0x3d, 0x77, 0xc4, 0x52, 0xbd,
  0x50, 0x7e, 0x06, 0x3e, 0x20, 0x6c, 0xff, 0xbd, 0x78, 0xf9, 0x92, 0xbe,
  0xcc, 0x56, 0xee, 0xbc, 0xf7, 0x70, 0xfb, 0x3c, 0xa5, 0xad, 0x06, 0xba,
  0xa2, 0x75, 0xa0, 0x3d, 0x16, 0x4e, 0xd9, 0xbd, 0x02, 0xc6, 0x78, 0xbe,
  0x1d, 0x54, 0x61, 0x3e, 0xdd, 0x11, 0x1f, 0x3e, 0x5e, 0x2c, 0x3f, 0xbc,
  0x8c, 0xa1, 0x80, 0xbd, 0x84, 0x9e, 0x6a, 0xbd, 0xb8, 0xb7, 0x6f, 0x3e,
  0xf7, 0x48, 0x2e, 0x3d, 0xd0, 0x84, 0xf2, 0x3c, 0x92, 0xb7, 0xd4, 0x3e,
  0x8a, 0xf3, 0xda, 0xbd, 0x7f, 0x7a, 0xa1, 0xbd, 0xeb, 0xd3, 0xa3, 0xbd,
  0x1b, 0xae, 0xac, 0xbe, 0x7e, 0x7c, 0x35, 0x3d, 0xf8, 0x52, 0x77, 0x3e,
  0x4d, 0x51, 0xe4, 0x3c, 0xfc, 0x3f, 0x69, 0xbe, 0x58, 0xb8, 0xa7, 0x3d,
  0x8b, 0x16, 0x38, 0xbe, 0x55, 0xbb, 0x53, 0x3e, 0x4f, 0xad, 0x9e, 0xbd,
  0x51, 0xa2, 0xa1, 0x3d, 0x19, 0x7a, 0x19, 0xbd, 0xae, 0x6f, 0x5c, 0x3e,
  0xc0, 0x66, 0x31, 0x3d, 0x1b, 0x6b, 0xe8, 0xbd, 0x08, 0x29, 0xd7, 0x3e,
  0xd3, 0x1f, 0x10, 0x3e, 0xd4, 0xf6, 0x12, 0xbc, 0xe1, 0x4c, 0x18, 0x3e,
  0xf1, 0x3a, 0x7c, 0xbe, 0x2c, 0xb3, 0x84, 0xbd, 0x42, 0x70, 0x9e, 0xbd,
  0x39, 0x93, 0x98, 0x3e, 0x1b, 0x41, 0xd7, 0x3d, 0x75, 0x60, 0xc2, 0xbd,
  0xb1, 0xc0, 0x43, 0x3e, 0xff, 0xbf, 0xc1, 0xbd, 0xe5, 0xdb, 0xf4, 0x3d,
  0x60, 0x8a, 0x62, 0xbe, 0x21, 0xb5, 0xab, 0x3e, 0xe6, 0xa5, 0x4a, 0xbd,
  0xcd, 0x31, 0xa4, 0xbd, 0xef, 0x58, 0x3b, 0xbe, 0x21, 0xc6, 0x1f, 0xbb,
  0x41, 0xd4, 0xb1, 0xbd, 0xf0, 0x7d, 0x9c, 0x3c, 0x06, 0x47, 0x5e, 0xbc,
  0x95, 0xeb, 0xdb, 0xbd, 0x27, 0x71, 0xa8, 0x3c, 0x74, 0x9c, 0x4c, 0xbd,
  0x29, 0xa1, 0x72, 0x3e, 0xe9, 0x21, 0x19, 0x3d, 0x3d, 0x59, 0xa0, 0xbd,
  0x61, 0x41, 0xa0, 0x3e, 0xde, 0x9d, 0x37, 0x3e, 0x20, 0x51, 0x18, 0x3e,
  0x3b, 0xc0, 0xe3, 0xbd, 0x6f, 0x5e, 0xf3, 0xbd, 0xc7, 0xa0, 0x92, 0x3e,
  0x4e, 0x33, 0x72, 0xbe, 0x24, 0x8f, 0x24, 0x3d, 0x87, 0xcf, 0x5a, 0xbd,
  0x24, 0xca, 0x0d, 0x3e, 0x27, 0xf7, 0x0a, 0x3e, 0x6c, 0x0e, 0x45, 0xbd,
  0x6b, 0xb3, 0x4d, 0x3e, 0x59, 0xb1, 0x21, 0x3e, 0xf9, 0x07, 0x20, 0x3e,
  0x1c, 0xb0, 0x10, 0x3e, 0xb5, 0x30, 0x19, 0x3e, 0xdc, 0xfb, 0x1a, 0x3e,
  0x31, 0x10, 0xd1, 0x3e, 0x0f, 0xe3, 0xc5, 0x3c, 0xbe, 0x57, 0xcc, 0xbd,
  0xa7, 0x0c, 0xff, 0x3d, 0x90, 0x52, 0x61, 0xbe, 0x55, 0x54, 0x6e, 0xbd,
  0xb4, 0xfa, 0xfa, 0x3d, 0xe3, 0xda, 0x05, 0xbc, 0xc3, 0x50, 0xce, 0x3a,
  0x4d, 0xc3, 0xd1, 0x3d, 0xb5, 0x68, 0x35, 0x3e, 0x58, 0x63, 0x83, 0x3e,
  0x71, 0xf0, 0xbc, 0x3d, 0x82, 0xfc, 0xf0, 0xbd, 0xa7, 0x37, 0xc2, 0x3c,
  0xbe, 0xa4, 0x00, 0x3e, 0x44, 0xca, 0x7f, 0xbc, 0xc8, 0x07, 0x56, 0x3d,
  0x74, 0x2f, 0x3c, 0x3e, 0x44, 0x80, 0x6e, 0x3d, 0x67, 0x56, 0xa0, 0x3d,
  0x91, 0xc3, 0xb3, 0xbd, 0x63, 0xa4, 0xd2, 0xbd, 0xd8, 0xc1, 0x49, 0x3e,
  0x93, 0x01, 0x7c, 0x3e, 0xc1, 0xde, 0x50, 0x3d, 0x7d, 0xc4, 0xd5, 0xbc,
  0x32, 0xa6, 0xef, 0xbd, 0x87, 0xf5, 0x51, 0xbd, 0xb6, 0xa7, 0xf6, 0xbe,
  0xeb, 0xba, 0xb1, 0x3d, 0xdc, 0x8f, 0xed, 0xbd, 0x07, 0x65, 0xda, 0x3e,
  0x39, 0xce, 0x0e, 0xbf, 0xb3, 0xe9, 0x21, 0x3d, 0xad, 0x09, 0xd1, 0xbd,
  0xa8, 0x60, 0x28, 0x3e, 0xed, 0x71, 0xce, 0xbd, 0x9d, 0x89, 0x3f, 0xbd,
  0x1c, 0x92, 0x61, 0x3d, 0x89, 0x88, 0xff, 0xbc, 0xaf, 0x0e, 0x82, 0xbe,
  0xbb, 0xd1, 0xa3, 0xbe, 0xe7, 0x50, 0xe6, 0xbd, 0x37, 0x3c, 0x54, 0xbd,
  0x8c, 0x5d, 0x96, 0x3e, 0x24, 0x5e, 0xf2, 0xbc, 0xa9, 0x26, 0x32, 0x3e,
  0x27, 0xe4, 0x40, 0xbd, 0xc4, 0x4e, 0x16, 0xbf, 0x92, 0x88, 0x5c, 0xbe,
  0x6a, 0x80, 0x05, 0xbd, 0x40, 0x31, 0x36, 0x3d, 0x84, 0xe9, 0x80, 0xbe,
  0x4b, 0x22, 0x14, 0xbd, 0x1f, 0xef, 0x5c, 0xbe, 0x38, 0x5f, 0xc0, 0xba,
  0x8d, 0xf9, 0x04, 0x3e, 0xc6, 0xcd, 0x01, 0x3e, 0x0b, 0x28, 0x5e, 0x3d,
  0x49, 0x1a, 0x19, 0xbe, 0xb8, 0x4e, 0x50, 0x3e, 0x8d, 0x71, 0x2b, 0x3e,
  0x1f, 0xff, 0xc3, 0xbc, 0x96, 0xd1, 0x6f, 0x3e, 0xf8, 0xf7, 0x90, 0xbe,
  0xbe, 0x89, 0x07, 0xbe, 0x77, 0xfd, 0xae, 0x3e, 0x86, 0x01, 0xa8, 0x3b,
  0xcd, 0xbb, 0xfb, 0x3c, 0x89, 0x94, 0x37, 0xbe, 0x15, 0x7e, 0xb5, 0x3b,
  0x08, 0x32, 0x6e, 0x3c, 0x24, 0xcf, 0x4d, 0x3e, 0x50, 0x39, 0x52, 0x3e,
  0x11, 0xf5, 0x95, 0x3d, 0x97, 0x9e, 0x89, 0x3e, 0x77, 0xa4, 0x6b, 0x3c,
  0x4c, 0xfc, 0xa7, 0xbd, 0xef, 0x6b, 0x88, 0x3e, 0x84, 0x84, 0x34, 0xbd,
  0x78, 0x55, 0x0d, 0x3e, 0x8e, 0x42, 0x88, 0x3d, 0xa6, 0x7e, 0x12, 0xbe,
  0xda, 0x9e, 0xc6, 0xbe, 0xec, 0x4f, 0x58, 0x3d, 0x0d, 0xd6, 0xa7, 0xbe,
  0x95, 0x3d, 0x8a, 0x3d, 0x98, 0x1a, 0x16, 0x3d, 0xe3, 0xb7, 0x72, 0xbe,
  0xfc, 0x2f, 0xce, 0xbd, 0xaa, 0xcd, 0xf0, 0xbe, 0xd9, 0x0a, 0xf8, 0xbc,
  0x2e, 0xd0, 0xb0, 0xbd, 0x82, 0xcd, 0xfc, 0x3d, 0xb8, 0x85, 0x62, 0xbd,
  0x7d, 0xfe, 0x1b, 0x3e, 0xa8, 0x80, 0x44, 0x3b, 0x2d, 0xec, 0x0a, 0x3e,
  0xc9, 0x07, 0xf3, 0x3c, 0x96, 0xe3, 0x9a, 0x3e, 0x73, 0x5b, 0xa2, 0x3e,
  0xed, 0x91, 0xb8, 0x3e, 0x40, 0xe4, 0x6d, 0x3e, 0xef, 0x9b, 0x29, 0x3e,
  0x62, 0xf9, 0x29, 0xbe, 0x29, 0xb7, 0x03, 0xbe, 0x15, 0x68, 0x67, 0x3e,
  0xc9, 0x4a, 0x8c, 0x3d, 0x2e, 0xe8, 0xb7, 0x3d, 0x8b, 0x0a, 0x73, 0x3e,
  0x21, 0xb5, 0x22, 0x3e, 0xd1, 0x70, 0x37, 0x3e, 0x25, 0xe1, 0xf7, 0xbc,
  0xed, 0x16, 0x1c, 0x3c, 0xb3, 0x23, 0x08, 0xbd, 0x96, 0x88, 0x96, 0xbe,
  0x22, 0x40, 0xf8, 0x3c, 0x06, 0x20, 0x55, 0x3d, 0x48, 0xf5, 0xac, 0xbe,
  0x0a, 0x3c, 0x3e, 0x3d, 0x36, 0x5a, 0x3f, 0x3e, 0xa6, 0x07, 0xee, 0x3c,
  0x5f, 0xec, 0x5d, 0x3e, 0xbf, 0x38, 0x36, 0xbe, 0xcd, 0xee, 0x41, 0x3b,
  0x16, 0xb6, 0x3c, 0x3e, 0x77, 0xa1, 0xd7, 0x3d, 0xa7, 0x61, 0x57, 0x3e,
  0x86, 0xe6, 0x38, 0x3d, 0x5c, 0x12, 0x96, 0xbd, 0xcd, 0xab, 0x87, 0x3e,
  0x23, 0x7d, 0xdb, 0xbd, 0xb8, 0x7a, 0x46, 0x3e, 0xd2, 0x2b, 0x61, 0x3d,
  0xbc, 0xa1, 0xb6, 0xbd, 0xae, 0x83, 0x86, 0x3d, 0x13, 0x9c, 0x2b, 0x3e,
  0xc9, 0x14, 0x32, 0x3d, 0x91, 0x63, 0x63, 0x3e, 0x1d, 0x18, 0xf9, 0x3d,
  0x51, 0xec, 0xec, 0x3d, 0xdd, 0x3d, 0x89, 0x3d, 0x58, 0x09, 0xc8, 0x3e,
  0x8d, 0x61, 0xe8, 0x3c, 0xd0, 0xef, 0x8a, 0xbd, 0xd4, 0x64, 0xa6, 0x3d,
  0x09, 0x1b, 0x9b, 0x3d, 0xa1, 0x96, 0x06, 0x3e, 0xc4, 0xfd, 0xa8, 0x3d,
  0x83, 0x1e, 0x88, 0xbd, 0xd7, 0xe0, 0x13, 0xbd, 0xd8, 0x86, 0xdf, 0x3d,
  0xa1, 0xe3, 0xa5, 0x3d, 0x9d, 0x5f, 0x86, 0xbe, 0x46, 0x9d, 0x6c, 0xbe,
  0x83, 0xc6, 0xb3, 0x3c, 0x99, 0x47, 0xb8, 0xbd, 0x62, 0x1a, 0x3a, 0x3e,
  0x94, 0xfe, 0x6d, 0x3d, 0xd2, 0x21, 0x1b, 0xbf, 0x8a, 0xaa, 0x98, 0x3e,
  0x3a, 0xf9, 0x02, 0x3e, 0x19, 0x89, 0x2a, 0x3e, 0xd0, 0x8a, 0x8b, 0xbe,
  0x0a, 0x84, 0x6b, 0xbe, 0x46, 0x7c, 0xfd, 0xbe, 0x9e, 0x82, 0x3c, 0xbe,
  0x07, 0xe8, 0xb6, 0x3c, 0xf8, 0x51, 0x51, 0x3e, 0x7c, 0x6f, 0x4d, 0xbc,
  0x8d, 0xea, 0x80, 0xbe, 0x7e, 0xd3, 0x60, 0xbe, 0xac, 0x9d, 0xa0, 0xbe,
  0xe5, 0x27, 0xc5, 0xbe, 0x1b, 0x80, 0xf2, 0xbe, 0x2c, 0xa3, 0xc6, 0xbe,
  0x43, 0x6d, 0x86, 0x3e, 0xfe, 0x5c, 0x06, 0xbd, 0x8d, 0x61, 0x33, 0xbe,
  0x5c, 0x63, 0x73, 0x3e, 0xe1, 0x3b, 0x0e, 0x3e, 0x1c, 0x91, 0x2c, 0xbf,
  0x18, 0xec, 0xc7, 0x3c, 0x5e, 0xb5, 0xeb, 0xbe, 0x45, 0x40, 0xf7, 0xbe,
  0x14, 0xcb, 0xaa, 0xbe, 0xdd, 0x38, 0xc1, 0xbe, 0x4b, 0x22, 0xc3, 0x3c,
  0xdf, 0x66, 0x8f, 0xbe, 0x0b, 0x66, 0x26, 0x3d, 0x06, 0xae, 0xad, 0xbe,
  0xf6, 0xc5, 0x51, 0x3e, 0xb4, 0x34, 0xf3, 0xbe, 0x3a, 0xd2, 0xba, 0xbd,
  0xf5, 0xb3, 0xe6, 0xbe, 0xa9, 0x45, 0x99, 0x3e, 0x5c, 0x2f, 0x4d, 0xbe,
  0xd9, 0x29, 0x05, 0xbf, 0x37, 0x33, 0x91, 0xbd, 0x20, 0xe0, 0x80, 0x3c,
  0xc3, 0xa7, 0x23, 0xbe, 0xff, 0x46, 0x3b, 0xbe, 0xcc, 0x37, 0x24, 0xbe,
  0x31, 0x41, 0xa3, 0xbe, 0x25, 0x5d, 0x0c, 0x3e, 0x69, 0x2e, 0x50, 0xbc,
  0x92, 0x1f, 0xbd, 0xbe, 0xbd, 0x0c, 0x81, 0x3e, 0xdc, 0x39, 0x3d, 0x3e,
  0x81, 0xe9, 0x83, 0xbd, 0x2f, 0xc3, 0xf5, 0xbe, 0x0a, 0xd0, 0x9b, 0x3d,
  0x68, 0x6a, 0x6a, 0x3d, 0xc1, 0x9f, 0x01, 0x3e, 0x6d, 0x13, 0x4e, 0xbe,
  0x0f, 0x33, 0x0f, 0xbe, 0x57, 0x8b, 0xed, 0xbc, 0xd8, 0x97, 0x19, 0x3c,
  0x24, 0x65, 0x47, 0x3d, 0x6c, 0x72, 0x79, 0xbd, 0x80, 0xbb, 0x6e, 0xbe,
  0x38, 0x78, 0xc3, 0x3d, 0x22, 0xd4, 0x1b, 0x3c, 0xec, 0x46, 0xaa, 0xbe,
  0x24, 0xcc, 0x60, 0xbe, 0x59, 0x97, 0xe7, 0x3e, 0x93, 0xd7, 0x88, 0x3e,
  0x18, 0x9f, 0xea, 0xbe, 0xfb, 0x8d, 0x46, 0xbe, 0x7a, 0x61, 0x84, 0xbe,
  0x42, 0x8b, 0xee, 0xbe, 0x9d, 0x90, 0x45, 0x3e, 0xe5, 0xf3, 0x39, 0x3e,
  0x7f, 0x75, 0xdb, 0xbd, 0xb2, 0x77, 0x3a, 0xbf, 0x34, 0x51, 0xba, 0xbe,
  0xe2, 0xda, 0x7c, 0xbe, 0x71, 0x7e, 0xd9, 0xbe, 0xa9, 0x04, 0xc1, 0xbe,
  0x22, 0x4f, 0x6d, 0x3d, 0x4b, 0xc7, 0xcf, 0x3e, 0x28, 0xb4, 0x92, 0x3d,
  0xd1, 0x3c, 0x4a, 0xbf, 0x39, 0xb7, 0xfd, 0x3c, 0x1f, 0x29, 0x1a, 0x3d,
  0x27, 0xed, 0xfb, 0xbe, 0x32, 0xfd, 0x85, 0xbe, 0xc3, 0xd1, 0x48, 0xbf,
  0xff, 0x7e, 0x83, 0xbe, 0x1a, 0x5f, 0x9d, 0xbe, 0x46, 0x59, 0x62, 0x3c,
  0xf7, 0x47, 0x75, 0xbd, 0x03, 0x68, 0x0a, 0xbe, 0x0c, 0xb6, 0xe6, 0xbd,
  0x59, 0x6e, 0x1c, 0x3e, 0xc2, 0x1c, 0x43, 0xbd, 0xd7, 0xed, 0x08, 0x3e,
  0x6b, 0x7e, 0x7f, 0x3e, 0x57, 0xa4, 0xb3, 0xbe, 0x05, 0x92, 0xa5, 0x3e,
  0x53, 0xff, 0xa8, 0xbe, 0x3e, 0xa6, 0xef, 0xbe, 0x0a, 0xff, 0x05, 0xbd,
  0x14, 0x3e, 0x8f, 0x3e, 0xa6, 0xb3, 0x53, 0xbe, 0xa0, 0x96, 0x27, 0x3e,
  0x2d, 0xd3, 0xe2, 0xbd, 0x52, 0xff, 0x05, 0xbf, 0xf2, 0xff, 0x21, 0x3e,
  0xe3, 0x78, 0xa2, 0xbe, 0x01, 0xde, 0xf5, 0xbe, 0x42, 0x04, 0x97, 0x3d,
  0x5f, 0x91, 0xb1, 0x3e, 0x00, 0x08, 0x03, 0xbf, 0xb2, 0x79, 0x20, 0xbe,
  0x12, 0x3d, 0x99, 0xbc, 0x9b, 0x4e, 0x82, 0x3e, 0x7d, 0xbd, 0x8e, 0x3d,
  0x5e, 0x85, 0x78, 0x3d, 0x24, 0xd4, 0x09, 0xbe, 0x1e, 0x0b, 0x95, 0xbe,
  0x73, 0x97, 0x88, 0x3e, 0xa9, 0x5c, 0x8f, 0x3e, 0xb1, 0xa1, 0x0f, 0xbd,
  0x95, 0x07, 0x23, 0xbd, 0x60, 0x77, 0x6a, 0xbe, 0x26, 0xad, 0x18, 0xbd,
  0xdb, 0x5c, 0x48, 0x3e, 0x16, 0x43, 0x49, 0xbe, 0x4d, 0xec, 0xa5, 0xbe,
  0xe0, 0x82, 0xdd, 0xbd, 0x81, 0xa0, 0x03, 0x3e, 0x38, 0x7e, 0xfa, 0x3d,
  0x3c, 0x10, 0x54, 0x3d, 0x07, 0xf9, 0x90, 0x3d, 0xb2, 0xd1, 0xaa, 0xbb,
  0x3f, 0xd8, 0x9a, 0xbd, 0x3b, 0xdd, 0x50, 0xbe, 0xe2, 0x3c, 0x3a, 0x3e,
  0x5d, 0x13, 0x0f, 0x3e, 0x05, 0x66, 0x4a, 0x3e, 0x0b, 0x4d, 0x89, 0x3e,
  0xcf, 0xf5, 0xc4, 0x3a, 0x14, 0xe5, 0xde, 0xbd, 0x99, 0x55, 0x97, 0xbe,
  0xdf, 0xcf, 0xbf, 0x3d, 0xab, 0xc9, 0x53, 0x3d, 0xae, 0xb9, 0x12, 0xbe,
  0x39, 0x9e, 0x30, 0xbe, 0xcc, 0xff, 0x65, 0x3e, 0x39, 0xa8, 0x6f, 0xbe,
  0xdc, 0x82, 0xb7, 0x3e, 0xe9, 0xee, 0xa3, 0x3d, 0xbc, 0x0b, 0x5d, 0x3e,
  0x2d, 0x9f, 0x83, 0xbe, 0x67, 0xc1, 0xb1, 0xbd, 0x04, 0xb1, 0x29, 0x3d,
  0x0f, 0xd9, 0x15, 0x3e, 0x70, 0x62, 0x18, 0xbd, 0x86, 0x01, 0xd3, 0x3e,
  0x9c, 0x2f, 0x0b, 0x3e, 0x24, 0x54, 0xc4, 0xbc, 0x01, 0x99, 0xb5, 0xbd,
  0xb9, 0x73, 0x1b, 0xbe, 0x06, 0xc4, 0x01, 0xbb, 0xd6, 0x37, 0x19, 0x3e,
  0x29, 0x4a, 0x04, 0xbd, 0xc5, 0x83, 0x8f, 0xbe, 0x9c, 0xa9, 0x59, 0x3d,
  0x5c, 0x49, 0xe2, 0xbc, 0x73, 0x8f, 0x71, 0x3d, 0x2f, 0x24, 0x20, 0x3d,
  0x8b, 0x26, 0x47, 0x3e, 0xa2, 0x30, 0x0c, 0x3e, 0x95, 0x6c, 0xa7, 0x3d,
  0xbe, 0x00, 0x37, 0x3e, 0xb3, 0x58, 0x0e, 0xbe, 0xa9, 0xf9, 0xad, 0x3e,
  0xda, 0xb6, 0x44, 0xbe, 0x34, 0x50, 0xc9, 0xbc, 0x45, 0xff, 0x0b, 0x3e,
  0x1f, 0x59, 0x08, 0xbd, 0x37, 0x9f, 0xbc, 0x3d, 0x02, 0x33, 0x70, 0x3e,
  0x13, 0x16, 0xaf, 0x3d, 0xdd, 0x8f, 0xa9, 0xbd, 0xe7, 0x8a, 0xbb, 0xbc,
  0x2b, 0x2e, 0x1a, 0xbe, 0x7b, 0x09, 0xab, 0xbe, 0xff, 0x2e, 0xdb, 0x3c,
  0xfa, 0x78, 0x3a, 0x3e, 0x3f, 0x3d, 0x81, 0x3d, 0xb3, 0x4e, 0x14, 0x3e,
  0xa9, 0xde, 0x4f, 0x3e, 0x05, 0x21, 0xcf, 0xbd, 0xd9, 0x15, 0x51, 0x3e,
  0x8d, 0xa2, 0x99, 0xbe, 0x43, 0x51, 0x07, 0xbd, 0x0b, 0xf8, 0xbb, 0xbe,
  0x4c, 0xec, 0xa6, 0x3d, 0x3a, 0x5f, 0x96, 0x3d, 0xf6, 0xca, 0x6e, 0xbe,
  0x14, 0x6b, 0x96, 0xbe, 0x81, 0x27, 0xcc, 0xbe, 0x7b, 0x8f, 0x51, 0xbe,
  0x98, 0xef, 0xa5, 0xbe, 0x4b, 0x65, 0x85, 0xbe, 0xae, 0x6b, 0x23, 0xbe,
  0x5d, 0xbe, 0x3a, 0xbe, 0xec, 0xd5, 0x4d, 0xbe, 0xba, 0x8a, 0x8c, 0xbe,
  0xa1, 0x72, 0xb2, 0x3b, 0xec, 0x7b, 0x07, 0xbe, 0x66, 0xec, 0x58, 0xbe,
  0xe0, 0x8c, 0x8e, 0x3c, 0xa5, 0x0d, 0xae, 0xbe, 0x33, 0x7a, 0xa5, 0xbe,
  0x00, 0xb1, 0xc3, 0xbd, 0xd6, 0x25, 0x0d, 0xbe, 0xdd, 0x73, 0xf6, 0x3d,
  0xd0, 0xd7, 0x79, 0xbe, 0x13, 0x04, 0x09, 0xbe, 0x28, 0x0f, 0x42, 0xbe,
  0x3f, 0xde, 0x10, 0x3e, 0xa9, 0xe9, 0x16, 0xbe, 0x4f, 0xe7, 0xaf, 0x3d,
  0xfe, 0x95, 0x44, 0xbe, 0x74, 0x37, 0x8e, 0x3e, 0x57, 0x2b, 0xe8, 0xbd,
  0xa8, 0x63, 0xb8, 0xbd, 0xa4, 0x5a, 0xc3, 0xbd, 0x3c, 0x21, 0xf8, 0x3d,
  0x28, 0x95, 0x6a, 0xbd, 0xb2, 0x25, 0x93, 0x3e, 0x2a, 0x2e, 0x8d, 0xbd,
  0x2b, 0xa1, 0x3e, 0xbe, 0xc7, 0xaa, 0xcb, 0xbc, 0xcf, 0xe5, 0xc7, 0xbd,
  0xcd, 0x41, 0x9d, 0x3d, 0x6a, 0xa3, 0x0a, 0x3e, 0x67, 0x81, 0x00, 0xbe,
  0x95, 0xf2, 0xca, 0xbd, 0x3c, 0xea, 0x91, 0xbe, 0xd7, 0x1c, 0xa8, 0xbc,
  0x1a, 0x11, 0xbe, 0xbc, 0xa9, 0x2e, 0xad, 0xbd, 0xfc, 0xdb, 0x40, 0xbe,
  0x0d, 0xc9, 0x9d, 0x3d, 0x08, 0x4f, 0xf5, 0xbd, 0x09, 0x22, 0x8d, 0x3d,
  0x38, 0xa8, 0x51, 0xbd, 0xe2, 0x77, 0x04, 0x3d, 0xa5, 0xdd, 0xea, 0x3d,
  0x7a, 0xc2, 0x23, 0xbe, 0xb8, 0x72, 0xf8, 0xbd, 0x6e, 0x5a, 0x9e, 0x3d,
  0x20, 0xab, 0x0c, 0xbe, 0x24, 0x0b, 0x25, 0xbd, 0xc4, 0x74, 0xf3, 0xbc,
  0x10, 0x3e, 0xb8, 0xbc, 0x91, 0xdf, 0x65, 0xbd, 0x4c, 0xef, 0x39, 0xbe,
  0x21, 0x2e, 0xd6, 0xbd, 0x99, 0xde, 0x5c, 0xbe, 0xc8, 0x49, 0x3f, 0xbe,
  0x90, 0xd0, 0x2c, 0xbe, 0xc9, 0x72, 0x74, 0xbd, 0x7e, 0x80, 0x20, 0x3d,
  0x92, 0xd3, 0x48, 0xbe, 0x2b, 0xe5, 0x02, 0x3d, 0x11, 0x22, 0x34, 0xbe,
  0x3c, 0x57, 0x21, 0x3d, 0x62, 0x87, 0x45, 0xbe, 0x91, 0xc4, 0x1b, 0xbc,
  0xe7, 0xa8, 0xcd, 0x3d, 0x2f, 0x2b, 0xb3, 0xbd, 0x61, 0x25, 0x5a, 0xbd,
  0xf9, 0xc2, 0x0a, 0x3d, 0x05, 0x07, 0x0e, 0x3d, 0xf4, 0x0e, 0x95, 0xbd,
  0x10, 0xf3, 0x04, 0x3e, 0xb3, 0x41, 0x50, 0xbe, 0x1b, 0x49, 0x36, 0xbe,
  0xb7, 0xca, 0xc6, 0x3d, 0xda, 0xf0, 0x6f, 0x3d, 0x9f, 0x1c, 0x12, 0xbe,
  0xce, 0x6e, 0xbc, 0x3d, 0x4f, 0xcd, 0x9c, 0xbd, 0x51, 0x85, 0x3f, 0xbe,
  0x1c, 0x8a, 0x4d, 0xbe, 0x5f, 0xd7, 0x4a, 0xbe, 0x93, 0xf6, 0xc2, 0x3d,
  0x87, 0xde, 0xf3, 0x3c, 0xc2, 0xad, 0x50, 0xbe, 0x13, 0x71, 0x58, 0xbe,
  0x6c, 0xbf, 0x22, 0x3d, 0xd7, 0xd9, 0xe7, 0xbd, 0x3e, 0x20, 0x2e, 0x3c,
  0xb3, 0xc2, 0x2a, 0xbe, 0xb6, 0x94, 0x4d, 0xbe, 0x56, 0x02, 0x9b, 0x39,
  0xe6, 0x39, 0x59, 0xbd, 0x4e, 0xad, 0x40, 0x3d, 0x6f, 0xb3, 0x83, 0xbd,
  0xd3, 0x2f, 0x88, 0xbc, 0x6c, 0x7c, 0x28, 0xbe, 0x3f, 0x23, 0x86, 0xbc,
  0xf3, 0x1c, 0x08, 0xbe, 0x26, 0x2c, 0x84, 0x3d, 0xd6, 0x75, 0x0c, 0xbe,
  0x4e, 0x76, 0xf4, 0xbd, 0x9f, 0xf8, 0x41, 0x3c, 0x6a, 0x83, 0xc0, 0xbc,
  0xbb, 0xc2, 0xa2, 0xbd, 0xa3, 0xd4, 0x1e, 0xbe, 0x81, 0x8d, 0xa4, 0xbe,
  0xd1, 0x24, 0xd0, 0xbd, 0x8d, 0x7b, 0xf4, 0xba, 0xed, 0xd8, 0x37, 0xbd,
  0x22, 0xee, 0xbb, 0x3e, 0x55, 0x44, 0x88, 0x3d, 0xfb, 0xf9, 0xea, 0xbd,
  0x70, 0xf3, 0x4d, 0xbe, 0xfc, 0xd2, 0x07, 0x3e, 0x63, 0x77, 0x93, 0x3d,
  0x48, 0xb4, 0xb7, 0x3e, 0x65, 0xa4, 0xfd, 0x3e, 0x9c, 0xaf, 0x11, 0xbe,
  0x04, 0x01, 0xc2, 0xbe, 0xbf, 0x92, 0x51, 0x3d, 0x59, 0x4a, 0xdc, 0x3d,
  0x39, 0x65, 0xcc, 0x3e, 0x46, 0x4d, 0xab, 0x3e, 0x30, 0x8c, 0x29, 0x3e,
  0x19, 0x1d, 0xc0, 0x3e, 0x51, 0xf0, 0x11, 0x3e, 0x4d, 0x1e, 0xeb, 0xbe,
  0x24, 0xcd, 0x36, 0x3e, 0x56, 0x77, 0x36, 0x3c, 0x13, 0x93, 0xac, 0x3c,
  0x4d, 0x4e, 0xdd, 0xbb, 0x7e, 0xb8, 0x73, 0x3e, 0x6c, 0xf9, 0x43, 0xbd,
  0x3a, 0x0b, 0xa2, 0x3e, 0xf3, 0x5e, 0x01, 0xbd, 0x51, 0x7a, 0x02, 0xba,
  0x98, 0x13, 0xb8, 0xbd, 0xcb, 0x2c, 0x96, 0xbd, 0xcb, 0x96, 0x57, 0x3e,
  0x2d, 0x15, 0x16, 0x3d, 0x86, 0x60, 0x32, 0x3e, 0x4f, 0xc5, 0x5c, 0x3e,
  0x7c, 0xec, 0x63, 0x3e, 0x16, 0x6f, 0x87, 0xbd, 0x7e, 0x61, 0x82, 0x3d,
  0xa9, 0x8c, 0xaf, 0xbd, 0x59, 0x8c, 0x35, 0xbd, 0x3f, 0x49, 0xd4, 0x3d,
  0xf0, 0xf1, 0x83, 0x3e, 0x5b, 0xf1, 0x8f, 0xbe, 0x2c, 0x09, 0xc9, 0xbc,
  0xe6, 0x9e, 0xe3, 0x3d, 0xae, 0x58, 0x8a, 0x3d, 0x80, 0xdd, 0x60, 0x3d,
  0x2a, 0x31, 0x4b, 0xbe, 0x09, 0xf1, 0x78, 0x3e, 0xaf, 0xf0, 0x94, 0x3e,
  0xcd, 0x03, 0xb1, 0xbd, 0xd5, 0xfa, 0x5a, 0xbe, 0xf8, 0xeb, 0x54, 0x3e,
  0xb9, 0xe2, 0x66, 0x3e, 0x39, 0x92, 0x5e, 0x3d, 0x45, 0xfc, 0xa5, 0x3c,
  0xfc, 0x34, 0xcd, 0xbe, 0x08, 0x4f, 0xcc, 0xbc, 0x72, 0x0f, 0x89, 0x3e,
  0x39, 0xc4, 0x12, 0x3e, 0x04, 0x59, 0x44, 0xbe, 0xa0, 0xd1, 0x46, 0xbe,
  0x35, 0xbc, 0x6d, 0xbb, 0xb9, 0xa3, 0x0d, 0xbf, 0x99, 0x04, 0x64, 0xbe,
  0xb2, 0x2f, 0x85, 0xbe, 0x89, 0x92, 0x31, 0x3e, 0xbc, 0x9d, 0x6c, 0xbe,
  0xad, 0x08, 0xb6, 0xbd, 0x67, 0x4e, 0x3e, 0x3d, 0xd4, 0xe6, 0xae, 0xbd,
  0x97, 0x4f, 0x5d, 0x3e, 0xad, 0x50, 0x39, 0x3d, 0xae, 0x40, 0x0e, 0x3d,
  0x43, 0x68, 0xbb, 0xbd, 0xeb, 0x7a, 0x0e, 0xbe, 0x86, 0x12, 0xa1, 0xbe,
  0x01, 0x9b, 0xf6, 0x3d, 0xa2, 0x4a, 0xfb, 0x3d, 0x22, 0x55, 0xb0, 0xbd,
  0x8e, 0x3a, 0xee, 0xbd, 0x4a, 0x7b, 0x22, 0xbe, 0x17, 0xb8, 0xe9, 0x3b,
  0x9f, 0x28, 0xc9, 0xbe, 0x13, 0x05, 0xb1, 0xbe, 0xe4, 0x4d, 0x4d, 0xbe,
  0xe8, 0xc8, 0xbc, 0x3d, 0xf3, 0xb7, 0x2a, 0xbd, 0xf2, 0x6c, 0xae, 0xbb,
  0xdb, 0x7c, 0x9b, 0xbe, 0xe1, 0x94, 0x17, 0xbe, 0x87, 0x0a, 0xf9, 0x3d,
  0x01, 0xbc, 0x38, 0xbd, 0x90, 0x2d, 0x8c, 0xbe, 0xb7, 0x8a, 0x29, 0xbe,
  0x3b, 0xee, 0xd1, 0x3c, 0xe4, 0xb9, 0x57, 0xbd, 0x75, 0xd5, 0x83, 0x3e,
  0xd0, 0xa1, 0xe1, 0x3e, 0x7f, 0xd4, 0xc5, 0xbd, 0x54, 0x57, 0x39, 0xbe,
  0xa4, 0xc7, 0xef, 0x3d, 0xed, 0x62, 0xb0, 0x3c, 0xe1, 0x44, 0xca, 0x3d,
  0x66, 0x0a, 0x0f, 0x3e, 0xf3, 0x3c, 0xae, 0xbd, 0xfa, 0x2a, 0x94, 0xbd,
  0x40, 0xd2, 0xb0, 0xbd, 0xc4, 0xbc, 0x76, 0x3e, 0xd0, 0xf4, 0xb2, 0x3c,
  0x4c, 0x6f, 0x5a, 0x3e, 0x77, 0x59, 0x0d, 0x3d, 0x36, 0x23, 0x7e, 0x3e,
  0xc8, 0xcc, 0x81, 0x3d, 0x1c, 0x6b, 0x5e, 0xbe, 0xce, 0x03, 0x64, 0x3e,
  0x0c, 0xa5, 0xe4, 0xbd, 0xa6, 0x32, 0x04, 0x3c, 0xf2, 0x72, 0xef, 0xbe,
  0x92, 0xaa, 0x4c, 0x3e, 0x8f, 0xb7, 0x54, 0xbe, 0x4d, 0xfb, 0x3f, 0xbd,
  0xe8, 0xf9, 0x5c, 0x3b, 0x17, 0x73, 0x96, 0xbc, 0xec, 0xfb, 0x82, 0xbe,
  0xe2, 0xe8, 0xc8, 0xbe, 0x6f, 0x17, 0xa8, 0x3d, 0xe9, 0x25, 0x90, 0xbc,
  0xc8, 0xd4, 0x84, 0xbe, 0x9e, 0x72, 0x3d, 0x3e, 0x7e, 0x33, 0x4d, 0xbd,
  0x6b, 0x06, 0xe1, 0xbd, 0xa3, 0xbd, 0xa1, 0xbe, 0xd1, 0x88, 0x37, 0xbe,
  0xc1, 0x66, 0xeb, 0xbd, 0xd6, 0xde, 0x2e, 0x3e, 0x3f, 0x91, 0x81, 0xbe,
  0xc0, 0x06, 0x4a, 0x3d, 0x6b, 0x42, 0x97, 0x3d, 0x20, 0xd4, 0x89, 0xbe,
  0xd1, 0x2a, 0x95, 0xbc, 0x1a, 0x16, 0x61, 0xbe, 0xbf, 0xdc, 0x26, 0x3e,
  0xb0, 0xcc, 0xcc, 0x3e, 0x03, 0xf6, 0x37, 0xbd, 0xf1, 0x6f, 0xbf, 0x3d,
  0x1e, 0x56, 0xa4, 0x3b, 0x6c, 0x13, 0xad, 0xbe, 0x7f, 0xa3, 0xdf, 0xbe,
  0x99, 0xef, 0x54, 0x3d, 0x05, 0xe0, 0x5b, 0xbd, 0x1c, 0xe4, 0x6e, 0x3d,
  0x68, 0x5d, 0xf6, 0x3d, 0x8b, 0x12, 0xe0, 0x3d, 0x5e, 0xf9, 0xc6, 0x3c,
  0x13, 0xe4, 0xa8, 0xbd, 0xed, 0x0e, 0x0c, 0x3e, 0xe2, 0xed, 0x8a, 0xbe,
  0x04, 0x7f, 0xe0, 0xbe, 0x15, 0xd8, 0x0f, 0xbe, 0x1b, 0xc3, 0x85, 0x3c,
  0xe2, 0xa1, 0x75, 0xbe, 0x4a, 0x4c, 0xbc, 0x3e, 0xba, 0x89, 0x98, 0xbc,
  0xbf, 0x2b, 0x0b, 0xbe, 0xd2, 0x7d, 0x27, 0x3e, 0x08, 0x49, 0x1d, 0xbe,
  0x13, 0x0e, 0x0b, 0xbe, 0xed, 0xa7, 0x24, 0x3e, 0x0c, 0x0e, 0x0d, 0x3e,
  0x6a, 0x33, 0xff, 0xbd, 0xfe, 0x58, 0x0d, 0x3d, 0x97, 0xbf, 0x85, 0x3c,
  0x8c, 0x7e, 0xd3, 0x3c, 0x61, 0xf4, 0x7d, 0xbc, 0x99, 0xf2, 0x1b, 0xbc,
  0x48, 0x49, 0x66, 0x3d, 0x6e, 0xdb, 0x62, 0xbc, 0xa7, 0xaf, 0x48, 0xbe,
  0x80, 0x74, 0x5c, 0xbe, 0xfa, 0x32, 0x1e, 0xbe, 0xb7, 0xb7, 0x0b, 0xbe,
  0x45, 0x1d, 0x2a, 0xbe, 0x49, 0x3e, 0x8e, 0xbd, 0x7d, 0x65, 0x91, 0xbe,
  0x88, 0x0f, 0x8c, 0x3d, 0xca, 0x46, 0x16, 0x3d, 0x47, 0x8a, 0x0e, 0x3d,
  0xa3, 0x5a, 0xae, 0xbe, 0x24, 0xfe, 0xf9, 0xbe, 0x91, 0x47, 0x41, 0x3e,
  0x76, 0x94, 0x7c, 0xbd, 0x13, 0x47, 0xf6, 0xbc, 0x35, 0xf4, 0x9d, 0xbe,
  0xd4, 0x2c, 0x65, 0x3e, 0x94, 0xbe, 0x08, 0x3d, 0x53, 0x87, 0x3b, 0x3d,
  0xd2, 0x28, 0xde, 0x3c, 0x02, 0x30, 0x58, 0xbd, 0x58, 0x32, 0x91, 0x3e,
  0x40, 0x08, 0x04, 0x3e, 0x72, 0xe8, 0x5e, 0x3e, 0x97, 0x56, 0xb7, 0xbd,
  0x4d, 0x14, 0xb5, 0x3d, 0x3b, 0xf5, 0x4f, 0xbe, 0x14, 0x7d, 0xaf, 0x3d,
  0x98, 0x7b, 0x30, 0xbd, 0xe7, 0x8d, 0xb8, 0xbd, 0x32, 0x19, 0x24, 0x3d,
  0xc3, 0x2a, 0xb8, 0x3c, 0x71, 0x49, 0x1b, 0x3e, 0xf6, 0x45, 0xa3, 0xbe,
  0xf4, 0x5f, 0x57, 0xbc, 0x8c, 0xb0, 0x0b, 0x3e, 0x78, 0xf7, 0x6a, 0x3d,
  0x0e, 0xb5, 0x80, 0xbe, 0x08, 0x39, 0xb3, 0xbc, 0x5a, 0x77, 0x89, 0xbe,
  0x54, 0x88, 0x98, 0x3e, 0x36, 0x16, 0x1d, 0xbe, 0x47, 0xf1, 0x94, 0xbc,
  0x9f, 0x7b, 0xe6, 0x3d, 0xa5, 0xa2, 0x4e, 0xbe, 0xb7, 0x27, 0x33, 0x3e,
  0x4a, 0xda, 0x5b, 0xbc, 0xe5, 0xc8, 0xbf, 0xbd, 0x25, 0x0e, 0x05, 0x3f,
  0x09, 0xdd, 0x32, 0xbe, 0x64, 0x48, 0x93, 0xbe, 0x77, 0x2e, 0x5c, 0xbe,
  0x62, 0x11, 0x2c, 0xbe, 0x55, 0x17, 0xab, 0x3d, 0x57, 0x0e, 0x2b, 0x3e,
  0x92, 0xdc, 0x07, 0x3d, 0x2e, 0x4b, 0x69, 0xbe, 0x90, 0x4a, 0x50, 0x3e,
  0x85, 0x50, 0x8c, 0xbd, 0x79, 0x41, 0x8a, 0x3d, 0x0c, 0x5e, 0x27, 0x3e,
  0xa7, 0xa2, 0x89, 0x3e, 0x68, 0x37, 0xfe, 0x3d, 0x0a, 0x8e, 0xb9, 0x3d,
  0xab, 0xe7, 0x1b, 0xbd, 0x28, 0x7e, 0x22, 0xbe, 0x4d, 0xa1, 0xba, 0x3d,
  0xca, 0x81, 0x36, 0x3e, 0xff, 0xb3, 0x29, 0xbd, 0x8f, 0xc5, 0xbf, 0x3d,
  0x4f, 0x3c, 0xc5, 0xbe, 0xee, 0xc7, 0xa1, 0x3d, 0xc9, 0x8c, 0xc1, 0x3c,
  0xe8, 0x10, 0xcc, 0x3d, 0xec, 0x1f, 0xb4, 0x3c, 0x5e, 0x06, 0x88, 0xbe,
  0xaa, 0xc7, 0x26, 0xbe, 0x68, 0xe5, 0xa6, 0xbe, 0x94, 0x2e, 0xe1, 0x3d,
  0x97, 0x10, 0x7b, 0xbe, 0x2f, 0x9d, 0xa4, 0xbe, 0x6f, 0xf1, 0x12, 0xbd,
  0x6c, 0xeb, 0xe2, 0xbe, 0x12, 0x43, 0x63, 0x3d, 0x97, 0xd6, 0x2c, 0xbe,
  0x6b, 0xba, 0x8a, 0xbd, 0x41, 0x13, 0x8c, 0x3d, 0xe2, 0xf0, 0x82, 0x3e,
  0xdf, 0x06, 0x17, 0x3d, 0xe8, 0xf5, 0xb8, 0xbe, 0x60, 0xda, 0x0b, 0xbe,
  0x16, 0xd4, 0x99, 0x3e, 0x4d, 0x10, 0x0d, 0xbf, 0x9d, 0xf5, 0xd6, 0xbe,
  0x10, 0xbb, 0x0b, 0x3e, 0x09, 0xd5, 0x63, 0xbe, 0x8c, 0x39, 0x8a, 0x3c,
  0x39, 0x09, 0x2e, 0xbe, 0xc5, 0xa0, 0x9f, 0xbe, 0x22, 0x1e, 0x75, 0xbd,
  0xfc, 0x42, 0x32, 0x3e, 0x15, 0x05, 0xda, 0x3d, 0x52, 0x95, 0x2c, 0x3e,
  0x49, 0x85, 0x8a, 0xbd, 0x16, 0x01, 0xfe, 0x3d, 0x1b, 0xf1, 0x69, 0xbd,
  0xcd, 0xe0, 0x9b, 0xbe, 0x7c, 0xd5, 0xf4, 0xbe, 0x8e, 0x18, 0x55, 0xbe,
  0x90, 0x4e, 0xe6, 0xbd, 0x87, 0x75, 0x47, 0x3e, 0x8d, 0x4e, 0xd8, 0xbe,
  0x68, 0xbf, 0xf8, 0xbe, 0xbc, 0xb7, 0x06, 0xbf, 0x7b, 0xe5, 0xcc, 0x3d,
  0x4e, 0x16, 0xbb, 0xbe, 0x78, 0xff, 0x90, 0x3e, 0xf3, 0xbf, 0x89, 0x3c,
  0x60, 0x6f, 0xd9, 0x3c, 0x0e, 0xa7, 0xa8, 0xbe, 0xb6, 0xa8, 0xab, 0x3c,
  0xb9, 0x06, 0x7d, 0xbd, 0x50, 0x3a, 0x30, 0x3d, 0xf4, 0x77, 0x48, 0xbe,
  0x07, 0xda, 0x81, 0x3d, 0x24, 0xd5, 0xc4, 0xbe, 0x45, 0x64, 0x4e, 0x3e,
  0x43, 0xd2, 0x82, 0x3e, 0x98, 0x98, 0xd8, 0x3d, 0xa8, 0xee, 0xb0, 0xbd,
  0x76, 0x1a, 0x4e, 0xbe, 0x2a, 0x83, 0x1f, 0xbf, 0x46, 0x13, 0x9a, 0xbd,
  0xe3, 0x3c, 0x6b, 0x3e, 0x8c, 0x4b, 0x9f, 0xbe, 0x5c, 0x7d, 0x04, 0x3d,
  0xbe, 0x53, 0x0d, 0xbf, 0xd6, 0xc5, 0x8c, 0xbe, 0xa6, 0x38, 0x1b, 0x3e,
  0x17, 0x4f, 0xfa, 0x3d, 0xbe, 0xb0, 0x7d, 0xbe, 0x01, 0x75, 0xbd, 0xbd,
  0x82, 0x78, 0xad, 0xbe, 0x91, 0xdf, 0x21, 0xbd, 0x35, 0x93, 0x44, 0x3d,
  0x6d, 0x03, 0x27, 0xbe, 0x51, 0xdb, 0x93, 0x3d, 0x19, 0xea, 0xed, 0xbe,
  0xad, 0x22, 0xf0, 0xbd, 0x12, 0x26, 0x42, 0x3e, 0x74, 0x30, 0xd4, 0xbd,
  0xb8, 0xb1, 0x87, 0x3e, 0x0d, 0xc7, 0x42, 0x3e, 0x2a, 0xeb, 0x3d, 0xbe,
  0x22, 0xf9, 0xdc, 0xbe, 0x5e, 0x83, 0x46, 0xbd, 0x56, 0xee, 0x8a, 0x3e,
  0x81, 0x6d, 0x18, 0x3d, 0xb3, 0xef, 0x86, 0x3e, 0xe5, 0xb3, 0x29, 0x3e,
  0xd1, 0xe1, 0x24, 0x3e, 0x86, 0xd5, 0x20, 0xbe, 0x40, 0xe1, 0x2e, 0x3d,
  0x4f, 0x05, 0xd0, 0x3b, 0x2a, 0x96, 0x7f, 0xbe, 0x44, 0xeb, 0xd7, 0xbd,
  0x1b, 0xc4, 0x77, 0x3e, 0xa0, 0x9b, 0x80, 0xbe, 0x65, 0x8f, 0x61, 0xbd,
  0xf6, 0xb0, 0x98, 0xbd, 0x5d, 0xd9, 0x84, 0xbd, 0x8d, 0x77, 0x76, 0xbe,
  0x0e, 0xd4, 0x85, 0xbe, 0x95, 0x67, 0xca, 0xbc, 0x70, 0x84, 0x1f, 0x3e,
  0xd5, 0x15, 0x42, 0xbe, 0x10, 0x7f, 0xd9, 0x3e, 0x53, 0x60, 0x76, 0xbd,
  0xea, 0xea, 0x50, 0xbe, 0x08, 0xd7, 0x1f, 0x3e, 0xf2, 0x73, 0xd9, 0xbd,
  0x34, 0xeb, 0xbf, 0xbd, 0xeb, 0xf0, 0xb5, 0xbd, 0x58, 0xd0, 0x52, 0x3e,
  0x29, 0xfb, 0xfd, 0xbc, 0xd3, 0x76, 0x1c, 0xbc, 0x36, 0x7a, 0x46, 0xbc,
  0xb8, 0xa6, 0x40, 0x3e, 0x91, 0xd9, 0x5c, 0x3e, 0x19, 0x86, 0x59, 0xbd,
  0xf9, 0x03, 0x7f, 0x3e, 0xe7, 0x6b, 0x55, 0xbd, 0x2d, 0xd2, 0x7f, 0xbd,
  0xde, 0x92, 0x8b, 0x3d, 0xfb, 0xaf, 0x92, 0x3d, 0x50, 0x2d, 0x8c, 0x3d,
  0xc4, 0x0b, 0x37, 0xbe, 0x14, 0x12, 0x91, 0xbc, 0x97, 0x85, 0x46, 0xbe,
  0x31, 0x79, 0x75, 0xbd, 0x0a, 0xc3, 0x14, 0x3e, 0xea, 0x93, 0xc2, 0x3d,
  0xb8, 0xd6, 0x3a, 0xbe, 0xba, 0xe0, 0xed, 0xbe, 0x14, 0x53, 0x10, 0x3e,
  0x82, 0x49, 0xa6, 0x3d, 0x18, 0xc3, 0xfd, 0x3d, 0xa3, 0xf3, 0x34, 0x3e,
  0xea, 0x31, 0x22, 0xbd, 0x97, 0xff, 0x1c, 0x3e, 0x29, 0x3c, 0xea, 0xbd,
  0xa2, 0xb1, 0x18, 0x3c, 0x88, 0xa1, 0xd1, 0xbe, 0xa4, 0x12, 0x95, 0xbe,
  0x35, 0xa2, 0x23, 0xbe, 0x47, 0x62, 0x86, 0x3d, 0x3f, 0xe3, 0xa7, 0xbe,
  0xd1, 0x1e, 0x97, 0xbe, 0x01, 0xae, 0x95, 0xbe, 0xfe, 0x4a, 0x63, 0xbe,
  0x2c, 0x86, 0x35, 0xbe, 0xb4, 0xaa, 0xc9, 0xbe, 0xfd, 0x4b, 0xe9, 0xbe,
  0x18, 0x48, 0x00, 0xbf, 0xc3, 0xf1, 0xc5, 0xbd, 0x29, 0x1a, 0x2e, 0xbe,
  0xf8, 0x07, 0xba, 0xbe, 0x01, 0x41, 0x3d, 0xbd, 0x5e, 0x60, 0xbc, 0xbd,
  0x88, 0x1a, 0xf2, 0x3d, 0x7c, 0x73, 0xe3, 0xbd, 0x0a, 0xd7, 0x98, 0x3e,
  0xd7, 0xcb, 0x9f, 0xbe, 0x30, 0xcb, 0xc0, 0xbe, 0x72, 0x1c, 0x52, 0x3b,
  0x83, 0xc3, 0x83, 0xbe, 0xb7, 0x9e, 0x78, 0x3e, 0x08, 0xd9, 0x06, 0xbf,
  0x19, 0xdf, 0xb8, 0xbd, 0x3b, 0x9f, 0xda, 0x3c, 0x7a, 0x28, 0x6a, 0x3d,
  0x3b, 0x2f, 0xad, 0xbe, 0x91, 0x0e, 0x16, 0x3e, 0xa3, 0x24, 0x81, 0xbe,
  0xea, 0xd2, 0x8a, 0xbd, 0x8e, 0xd4, 0x78, 0x3d, 0x0b, 0x32, 0x0e, 0xbe,
  0xce, 0x54, 0xc3, 0xbe, 0xcd, 0xf1, 0x44, 0xbe, 0xd2, 0x0a, 0xc7, 0xbe,
  0xd7, 0x1d, 0x10, 0x3e, 0x0b, 0xf8, 0xfc, 0x3c, 0x31, 0x36, 0x0a, 0xbf,
  0x79, 0xc7, 0xaf, 0xbc, 0x88, 0x36, 0xf9, 0x3d, 0x68, 0xfe, 0x48, 0x3d,
  0x60, 0x88, 0x0c, 0x3e, 0x22, 0x18, 0xec, 0xbe, 0x80, 0xf6, 0xe1, 0xbd,
  0xcb, 0x65, 0xdd, 0xbe, 0x05, 0xae, 0x3d, 0x3e, 0xf1, 0xba, 0x63, 0x3c,
  0x75, 0x17, 0x2a, 0xbe, 0x32, 0x44, 0xe3, 0xbe, 0xb4, 0x9d, 0x07, 0xbf,
  0xd7, 0x7f, 0x8b, 0x3d, 0x09, 0x37, 0x52, 0xbe, 0x09, 0x75, 0x78, 0xbd,
  0x4f, 0x7d, 0xf8, 0x3d, 0xa6, 0xd7, 0x28, 0xbe, 0xc1, 0x10, 0xd8, 0xbd,
  0xdd, 0x93, 0x9f, 0xbe, 0x3a, 0x45, 0xb6, 0x3e, 0xe2, 0xfe, 0xf6, 0xbc,
  0xb2, 0x92, 0x60, 0x3c, 0x0c, 0x3d, 0xb1, 0x3b, 0x73, 0xdb, 0x4a, 0x3e,
  0x54, 0xb1, 0x57, 0x3b, 0xc5, 0x64, 0xd6, 0x3d, 0x49, 0xd1, 0x14, 0xbc,
  0xef, 0xfd, 0x55, 0x3e, 0xbc, 0x90, 0x89, 0x3d, 0x21, 0x69, 0x14, 0x3d,
  0x33, 0x8f, 0xe9, 0x3d, 0xc6, 0x8e, 0xcc, 0x3e, 0xb4, 0x8d, 0xaa, 0x3e,
  0xea, 0x3a, 0x41, 0xbd, 0xe6, 0xa9, 0x9e, 0x3e, 0x71, 0x79, 0x61, 0x3c,
  0xf6, 0xde, 0xb8, 0xbe, 0x70, 0x8c, 0x7d, 0xbd, 0x0d, 0xc1, 0x37, 0x3e,
  0x28, 0x15, 0x34, 0xbe, 0x35, 0x9e, 0x9b, 0xbe, 0xc9, 0x5e, 0x8e, 0x3e,
  0x0e, 0x88, 0xaf, 0xbe, 0xd9, 0xdc, 0xa3, 0x3e, 0x6d, 0x85, 0x07, 0x3e,
  0x51, 0xba, 0xfa, 0x3d, 0x41, 0x3b, 0x89, 0x3c, 0xab, 0x00, 0x00, 0xbe,
  0xce, 0xd1, 0xbc, 0x3d, 0x26, 0x21, 0x77, 0x3d, 0x39, 0xc0, 0x8f, 0x3e,
  0x29, 0x49, 0xa0, 0x3e, 0xc7, 0x21, 0x01, 0x3e, 0x04, 0x40, 0x98, 0xbd,
  0xf9, 0x3f, 0xb6, 0xbd, 0x90, 0x41, 0x48, 0xbe, 0xaf, 0x35, 0x7f, 0xbc,
  0x83, 0x54, 0xbf, 0x3d, 0xbf, 0x1f, 0xd6, 0x3c, 0xa8, 0x53, 0x5d, 0xbe,
  0xbe, 0x44, 0x89, 0x3e, 0x0a, 0xa4, 0x80, 0xbe, 0xd8, 0xba, 0x8a, 0x3e,
  0xf3, 0x54, 0x6c, 0x3e, 0xc2, 0xf4, 0x66, 0x3e, 0x2a, 0xcd, 0x6d, 0xbc,
  0x16, 0xa9, 0xb1, 0x3e, 0x22, 0x8e, 0x1d, 0xbd, 0x1f, 0xff, 0x10, 0x3d,
  0x53, 0x2f, 0xc3, 0x3d, 0xef, 0x89, 0xb2, 0xbc, 0x86, 0x97, 0x4d, 0x3d,
  0xfb, 0x4a, 0x18, 0xbe, 0x9a, 0x5f, 0xb4, 0xbe, 0x94, 0x1b, 0x68, 0x3e,
  0xec, 0x9b, 0x28, 0x3e, 0x2f, 0x04, 0x30, 0x3e, 0xf5, 0x20, 0x1d, 0x3e,
  0xdf, 0x28, 0x76, 0xbe, 0xd0, 0x90, 0xf2, 0x3d, 0x3d, 0x05, 0x1d, 0xbd,
  0x3a, 0xd8, 0x77, 0xbd, 0xe8, 0x57, 0xf5, 0xbc, 0x83, 0x31, 0xf1, 0xbe,
  0x1e, 0x4a, 0x2f, 0xbe, 0xf7, 0x3d, 0x2e, 0x3d, 0x2b, 0xe5, 0x15, 0xbe,
  0x97, 0x9a, 0x1f, 0xbf, 0x11, 0x2e, 0xe2, 0xbe, 0xeb, 0xbb, 0x2f, 0xbf,
  0x9e, 0x6a, 0x17, 0xbf, 0x18, 0xf7, 0x68, 0x3d, 0x37, 0x49, 0xb9, 0x3e,
  0x3d, 0xd6, 0x70, 0xbe, 0xea, 0xa0, 0x67, 0xbd, 0x3a, 0x13, 0xb0, 0xbe,
  0x4c, 0x10, 0x42, 0x3d, 0xed, 0x23, 0xac, 0xbe, 0x1d, 0x9c, 0xc0, 0x3c,
  0x61, 0x22, 0xca, 0x3c, 0xc8, 0xdc, 0x32, 0x3e, 0x1d, 0xdb, 0x58, 0xbe,
  0x73, 0x81, 0x5b, 0xbe, 0xb1, 0xaf, 0x7a, 0x3e, 0xf5, 0x2c, 0x30, 0x3e,
  0x23, 0xdf, 0xb6, 0xbd, 0x5c, 0x88, 0x6c, 0x3e, 0x87, 0x4d, 0xbf, 0xbe,
  0x9e, 0x66, 0x69, 0xbe, 0x7a, 0xc7, 0xd3, 0xbe, 0x53, 0x59, 0x6d, 0xbd,
  0xb0, 0x14, 0x2e, 0xbe, 0xe6, 0x11, 0xac, 0xbd, 0x28, 0xce, 0x23, 0xbd,
  0x55, 0x28, 0x7d, 0xbe, 0x5e, 0x3f, 0x85, 0x3e, 0x02, 0xf7, 0xb2, 0xbe,
  0xe1, 0xcd, 0x20, 0x3e, 0x4f, 0x01, 0xb9, 0xbe, 0x22, 0x18, 0xa8, 0x3e,
  0x2e, 0xe6, 0x7a, 0xbe, 0xd6, 0xb7, 0x8c, 0xbe, 0x0c, 0x7a, 0xfe, 0xbc,
  0x41, 0xc9, 0xba, 0x3d, 0x9b, 0xaf, 0x9d, 0xbe, 0xfe, 0x57, 0x95, 0x3d,
  0x8f, 0x99, 0xcd, 0xbb, 0x31, 0x4c, 0xc9, 0xbe, 0xa4, 0x1e, 0xae, 0x3d,
  0x0b, 0x19, 0x14, 0xbe, 0xaa, 0x10, 0xa8, 0xbe, 0x39, 0xe3, 0x0f, 0x3e,
  0xb2, 0x29, 0x90, 0x3e, 0xa4, 0x41, 0xd3, 0xbd, 0x7d, 0x1e, 0x08, 0xbe,
  0x15, 0x79, 0xe8, 0x3c, 0xe8, 0x93, 0x95, 0xbd, 0xc8, 0x9f, 0x56, 0xba,
  0x33, 0xee, 0xb7, 0x3e, 0xc0, 0x2f, 0x95, 0xbe, 0x63, 0x99, 0x40, 0x3e,
  0xf9, 0x27, 0x79, 0x3e, 0x7a, 0x0d, 0xce, 0xbb, 0x38, 0x94, 0xa1, 0x3d,
  0xf3, 0x86, 0xe6, 0xbd, 0x47, 0x0e, 0x3b, 0xbe, 0xc2, 0xf8, 0xd3, 0x3d,
  0x2c, 0xcb, 0xb7, 0xbe, 0x89, 0xa7, 0x95, 0xbe, 0x2a, 0x54, 0x6b, 0x3e,
  0x39, 0xbf, 0x74, 0xbe, 0x92, 0xc4, 0x90, 0x3d, 0x12, 0x54, 0x09, 0x3d,
  0xc0, 0x60, 0x03, 0xbf, 0x9c, 0x03, 0x35, 0xbf, 0xd0, 0x56, 0x6b, 0x3e,
  0xd7, 0x00, 0x3a, 0x3e, 0x3b, 0x36, 0xf6, 0x3d, 0x81, 0xd7, 0x11, 0xbf,
  0x1c, 0x26, 0x6e, 0x3e, 0x74, 0x3f, 0xd7, 0xbe, 0xa0, 0xcc, 0xd2, 0xbe,
  0x1f, 0x01, 0x41, 0xbe, 0x48, 0xd8, 0x73, 0x3c, 0x47, 0x08, 0xca, 0x3e,
  0x18, 0x17, 0x30, 0xbd, 0x9e, 0x00, 0x70, 0x3e, 0x70, 0x6d, 0x26, 0x3e,
  0x49, 0x69, 0x51, 0x3e, 0xe3, 0x8f, 0xe7, 0xbe, 0x31, 0x68, 0xa9, 0x3e,
  0x96, 0xd1, 0xaa, 0xbe, 0x56, 0xc8, 0x59, 0xbd, 0xf2, 0x2e, 0x33, 0xbe,
  0xb8, 0x85, 0x1c, 0xbf, 0x2f, 0x13, 0x0d, 0xbe, 0xfd, 0x69, 0x96, 0x3e,
  0xd6, 0xef, 0x4a, 0x3e, 0xed, 0xf5, 0xfa, 0xbe, 0x2d, 0xb7, 0x75, 0xbe,
  0x8f, 0x60, 0x14, 0xbf, 0x6a, 0xf1, 0x1c, 0xbc, 0xf8, 0x9d, 0xb8, 0xbe,
  0xa0, 0xdd, 0xb5, 0x3e, 0x42, 0x54, 0x05, 0x3e, 0x5d, 0x8a, 0xc4, 0xbe,
  0x4c, 0x35, 0x72, 0x3e, 0xdf, 0x66, 0xe6, 0x3c, 0xb0, 0x78, 0xf2, 0xbc,
  0xd0, 0x99, 0xe4, 0xbb, 0x93, 0x1e, 0xae, 0x3e, 0xf1, 0x31, 0xb4, 0x3d,
  0xc3, 0x4d, 0x54, 0x3e, 0x15, 0xad, 0xaf, 0xbc, 0x9c, 0xa7, 0xb1, 0xbe,
  0x0e, 0xf0, 0xfb, 0x3d, 0x89, 0xab, 0x30, 0x3e, 0x96, 0xb6, 0xb0, 0x3d,
  0x18, 0x4c, 0x4c, 0xbf, 0x92, 0xeb, 0xa9, 0xbd, 0xfd, 0xf5, 0x84, 0x3e,
  0xdc, 0xc6, 0xf4, 0x3e, 0x6f, 0xd1, 0xe5, 0x3d, 0x8a, 0xd2, 0xb5, 0xbd,
  0xf5, 0x5e, 0xf0, 0x3d, 0xbc, 0xc6, 0x26, 0x3e, 0x04, 0x57, 0xf4, 0x3e,
  0x1e, 0xb3, 0x57, 0xbe, 0xd2, 0x43, 0x2b, 0xbe, 0x93, 0x5d, 0xb6, 0x3d,
  0xad, 0xc2, 0x33, 0x3d, 0x9f, 0x45, 0x23, 0x3e, 0x50, 0xbd, 0xad, 0x3b,
  0x27, 0xa6, 0xcf, 0x3d, 0x55, 0x93, 0xe1, 0xbd, 0x2e, 0x18, 0x6f, 0x3d,
  0x23, 0x41, 0x0a, 0x3e, 0x23, 0xde, 0xad, 0x3e, 0x5d, 0x89, 0x44, 0x3e,
  0x8b, 0x22, 0x3f, 0xbe, 0x85, 0x06, 0x82, 0xbe, 0x83, 0x7f, 0x0e, 0x3b,
  0xa3, 0xbb, 0x37, 0x3e, 0x69, 0xb2, 0x19, 0xbd, 0xdf, 0x79, 0x6e, 0x3d,
  0x21, 0x4d, 0x2c, 0x3e, 0x31, 0x65, 0x19, 0x3e, 0xc5, 0x1f, 0x98, 0xbd,
  0x19, 0xef, 0xa2, 0xbe, 0x9a, 0x9c, 0x1b, 0x3e, 0x47, 0xe2, 0x3d, 0x3e,
  0x58, 0xe1, 0x41, 0xbe, 0x36, 0x81, 0xc8, 0xbd, 0x9e, 0xc8, 0x2f, 0x3e,
  0xdf, 0xa9, 0xd1, 0x3b, 0xbc, 0x56, 0x52, 0x3e, 0xea, 0xc4, 0xb0, 0x3d,
  0x45, 0x37, 0x8e, 0x3e, 0x9b, 0xf3, 0xf5, 0xbd, 0xa7, 0xa5, 0x23, 0x3e,
  0x97, 0x48, 0xcb, 0x3d, 0x17, 0xee, 0x49, 0x3c, 0x8b, 0xbd, 0x60, 0x3e,
  0x89, 0x68, 0xdb, 0x3e, 0xa3, 0x30, 0x42, 0xbe, 0x47, 0xa7, 0x5d, 0xbe,
  0x45, 0xf7, 0x11, 0x3e, 0xbf, 0x9e, 0x88, 0xbe, 0xa4, 0x4d, 0x7f, 0xbc,
  0xb1, 0x72, 0xc8, 0x3e, 0xe0, 0x7b, 0xf6, 0xbc, 0x4a, 0x91, 0x25, 0xbe,
  0xaf, 0xf3, 0xbd, 0x3d, 0x59, 0xdb, 0xd3, 0xbc, 0x68, 0x35, 0x73, 0xbc,
  0x25, 0x4b, 0xbd, 0x3b, 0xc8, 0x16, 0x0e, 0x3e, 0xc9, 0x95, 0xc8, 0xbc,
  0xa8, 0x0c, 0xfa, 0xbc, 0x0d, 0x32, 0xcf, 0xbc, 0x51, 0x8c, 0x38, 0x3d,
  0x9b, 0x0e, 0x91, 0x3e, 0x4d, 0xc7, 0x64, 0x3e, 0x28, 0x08, 0xd6, 0xbd,
  0x53, 0x35, 0x83, 0x3e, 0x4e, 0x2b, 0x42, 0x3d, 0x39, 0x5d, 0x1f, 0x3e,
  0x13, 0x73, 0xf5, 0xbd, 0x52, 0x2b, 0x88, 0x3d, 0x06, 0x77, 0x93, 0xbe,
  0x34, 0xe9, 0x67, 0xbe, 0x0b, 0xaf, 0x91, 0x3d, 0x0a, 0x9d, 0xd2, 0xbd,
  0x74, 0xc1, 0x06, 0xbe, 0x7a, 0xc6, 0xdb, 0x3d, 0x27, 0x94, 0x5d, 0x3d,
  0xc8, 0x3a, 0x60, 0xbe, 0xc8, 0x8d, 0xe8, 0x3d, 0xce, 0xd2, 0xe5, 0xbd,
  0xd3, 0x56, 0x08, 0xbe, 0xa3, 0x2c, 0x31, 0x3d, 0x81, 0x74, 0x75, 0xbe,
  0x20, 0xab, 0x57, 0xbe, 0x16, 0x30, 0x09, 0xbe, 0xab, 0xe3, 0x91, 0x3d,
  0xde, 0x1d, 0xa4, 0xbc, 0xe7, 0xd2, 0x32, 0x3d, 0x2d, 0x79, 0x04, 0xbe,
  0x9f, 0x70, 0x11, 0xbc, 0xf0, 0x4a, 0x5b, 0xbd, 0x37, 0x84, 0x8d, 0x3d,
  0xd1, 0x39, 0x09, 0xbd, 0xa8, 0x2b, 0xe1, 0xbc, 0x9b, 0x62, 0x79, 0xbd,
  0xe3, 0x8f, 0x5b, 0xbe, 0x09, 0x8d, 0x8e, 0x3d, 0xa3, 0xc4, 0x21, 0x3e,
  0x8e, 0x22, 0xa2, 0xbe, 0xbe, 0x6f, 0x24, 0x3e, 0xf9, 0xe4, 0x7f, 0x3d,
  0xd5, 0xe2, 0x67, 0xbd, 0x32, 0x44, 0x77, 0x3c, 0x79, 0x3a, 0xcd, 0xbc,
  0xa2, 0x62, 0xd3, 0xbc, 0x35, 0x22, 0x81, 0xbe, 0x21, 0x32, 0xfa, 0x3d,
  0x9a, 0x86, 0x57, 0x3d, 0x43, 0xe7, 0x5d, 0xbe, 0x26, 0x0b, 0x22, 0xbe,
  0x85, 0x6d, 0xce, 0xbd, 0xe8, 0x76, 0xa7, 0xbd, 0x94, 0x60, 0xa9, 0xbe,
  0x1e, 0xbe, 0x77, 0xbe, 0x60, 0x8a, 0x0c, 0xbe, 0xc9, 0x8b, 0xb4, 0x3d,
  0xf4, 0x73, 0x6c, 0xbe, 0x74, 0x23, 0x2c, 0xbe, 0x4c, 0xfb, 0xe6, 0xbd,
  0xc7, 0xa5, 0x78, 0xbe, 0xc5, 0x85, 0xd7, 0x3d, 0x37, 0xee, 0xa8, 0xbd,
  0x7f, 0x46, 0x16, 0x3c, 0x81, 0x33, 0x29, 0x3e, 0xee, 0xf9, 0x15, 0xbe,
  0xa0, 0x52, 0xab, 0xbe, 0x4b, 0x45, 0xa0, 0xbd, 0x30, 0x08, 0x6d, 0xbd,
  0xc4, 0xec, 0xf3, 0x3a, 0xfc, 0x8e, 0x54, 0x3d, 0x55, 0x6f, 0xea, 0xbd,
  0xa8, 0x29, 0x32, 0xbc, 0x62, 0x82, 0x1d, 0xbe, 0x6d, 0xd4, 0x30, 0xbe,
  0x69, 0x3f, 0x91, 0xbe, 0xd0, 0x9d, 0xb0, 0x3d, 0xda, 0xbd, 0xcf, 0x3d,
  0xb2, 0xe4, 0x17, 0x3d, 0xc1, 0x2f, 0xb5, 0xbd, 0x2f, 0x34, 0x0f, 0x3e,
  0xfa, 0xf2, 0x32, 0xbe, 0x8d, 0xfe, 0x7b, 0xbe, 0x15, 0x7c, 0x9d, 0xbc,
  0xf2, 0xd9, 0xf8, 0xbd, 0xd3, 0xc6, 0x69, 0x3e, 0xda, 0x7e, 0x35, 0x3e,
  0xd7, 0x3e, 0xb1, 0xbe, 0xf2, 0xab, 0xfc, 0xbe, 0xc3, 0xbc, 0xaf, 0x3d,
  0x4d, 0x16, 0x7e, 0x3d, 0x64, 0x4e, 0xac, 0xbd, 0x15, 0xd0, 0xee, 0xbe,
  0xa2, 0x1e, 0xd6, 0xbe, 0x12, 0xd0, 0x80, 0xbe, 0x90, 0x02, 0xa1, 0xbe,
  0x08, 0x52, 0xba, 0xb8, 0x9e, 0x4f, 0xd5, 0x3c, 0xc4, 0x79, 0x91, 0x3e,
  0x3f, 0x7a, 0x94, 0xbd, 0xef, 0xad, 0x20, 0x3e, 0x52, 0x67, 0x83, 0xbe,
